{
  "version": "1.0",
  "truncation": null,
  "padding": null,
  "added_tokens": [
    {
      "id": 0,
      "content": "[PAD]",
      "single_word": false,
      "lstrip": false,
      "rstrip": false,
      "normalized": false,
      "special": true
    },
    {
      "id": 1,
      "content": "[UNK]",
      "single_word": false,
      "lstrip": false,
      "rstrip": false,
      "normalized": false,
      "special": true
    },
    {
      "id": 2,
      "content": "[CLS]",
      "single_word": false,
      "lstrip": false,
      "rstrip": false,
      "normalized": false,
      "special": true
    },
    {
      "id": 3,
      "content": "[SEP]",
      "single_word": false,
      "lstrip": false,
      "rstrip": false,
      "normalized": false,
      "special": true
    },
    {
      "id": 4,
      "content": "[MASK]",
      "single_word": false,
      "lstrip": false,
      "rstrip": false,
      "normalized": false,
      "special": true
    }
  ],
  "normalizer": {
    "type": "BertNormalizer",
    "clean_text": true,
    "handle_chinese_chars": true,
    "strip_accents": null,
    "lowercase": true
  },
  "pre_tokenizer": {
    "type": "BertPreTokenizer"
  },
  "post_processor": {
    "type": "TemplateProcessing",
    "single": [
      {
        "SpecialToken": {
          "id": "[CLS]",
          "type_id": 0
        }
      },
      {
        "Sequence": {
          "id": "A",
          "type_id": 0
        }
      },
      {
        "SpecialToken": {
          "id": "[SEP]",
          "type_id": 0
        }
      }
    ],
    "pair": [
      {
        "SpecialToken": {
          "id": "[CLS]",
          "type_id": 0
        }
      },
      {
        "Sequence": {
          "id": "A",
          "type_id": 0
        }
      },
      {
        "SpecialToken": {
          "id": "[SEP]",
          "type_id": 0
        }
      },
      {
        "Sequence": {
          "id": "B",
          "type_id": 1
        }
      },
      {
        "SpecialToken": {
          "id": "[SEP]",
          "type_id": 1
        }
      }
    ],
    "special_tokens": {
      "[CLS]": {
        "id": "[CLS]",
        "ids": [
          2
        ],
        "tokens": [
          "[CLS]"
        ]
      },
      "[SEP]": {
        "id": "[SEP]",
        "ids": [
          3
        ],
        "tokens": [
          "[SEP]"
        ]
      }
    }
  },
  "decoder": {
    "type": "WordPiece",
    "prefix": "##",
    "cleanup": true
  },
  "model": {
    "type": "WordPiece",
    "unk_token": "[UNK]",
    "continuing_subword_prefix": "##",
    "max_input_chars_per_word": 100,
    "vocab": {
      "[PAD]": 0,
      "[UNK]": 1,
      "[CLS]": 2,
      "[SEP]": 3,
      "[MASK]": 4,
      "!": 5,
      "$": 6,
      "%": 7,
      "&": 8,
      "'": 9,
      "(": 10,
      ")": 11,
      "+": 12,
      ",": 13,
      "-": 14,
      ".": 15,
      "/": 16,
      "0": 17,
      "1": 18,
      "2": 19,
      "3": 20,
      "4": 21,
      "5": 22,
      "6": 23,
      "7": 24,
      "8": 25,
      "9": 26,
      ":": 27,
      ";": 28,
      "=": 29,
      "?": 30,
      "`": 31,
      "a": 32,
      "b": 33,
      "c": 34,
      "d": 35,
      "e": 36,
      "f": 37,
      "g": 38,
      "h": 39,
      "i": 40,
      "j": 41,
      "k": 42,
      "l": 43,
      "m": 44,
      "n": 45,
      "o": 46,
      "p": 47,
      "q": 48,
      "r": 49,
      "s": 50,
      "t": 51,
      "u": 52,
      "v": 53,
      "w": 54,
      "x": 55,
      "y": 56,
      "z": 57,
      "£": 58,
      "¦": 59,
      "«": 60,
      "¬": 61,
      "®": 62,
      "¼": 63,
      "##u": 64,
      "##t": 65,
      "##s": 66,
      "##i": 67,
      "##d": 68,
      "##e": 69,
      "##6": 70,
      "##0": 71,
      "##r": 72,
      "##f": 73,
      "##c": 74,
      "##a": 75,
      "##o": 76,
      "##n": 77,
      "##v": 78,
      "##b": 79,
      "##l": 80,
      "##4": 81,
      "##3": 82,
      "##8": 83,
      "##m": 84,
      "##y": 85,
      "##5": 86,
      "##p": 87,
      "##h": 88,
      "##k": 89,
      "##g": 90,
      "##2": 91,
      "##9": 92,
      "##x": 93,
      "##7": 94,
      "##1": 95,
      "##w": 96,
      "##z": 97,
      "##q": 98,
      "##j": 99,
      "##er": 100,
      "th": 101,
      "##in": 102,
      "the": 103,
      "##on": 104,
      "##es": 105,
      "##an": 106,
      "in": 107,
      "##or": 108,
      "##ar": 109,
      "##ed": 110,
      "##en": 111,
      "##at": 112,
      "##ro": 113,
      "##al": 114,
      "of": 115,
      "an": 116,
      "##ing": 117,
      "##ion": 118,
      "to": 119,
      "##ur": 120,
      "##it": 121,
      "##il": 122,
      "and": 123,
      "##om": 124,
      "##as": 125,
      "##is": 126,
      "##ct": 127,
      "##ic": 128,
      "##el": 129,
      "##et": 130,
      "##ent": 131,
      "com": 132,
      "20": 133,
      "##st": 134,
      "##re": 135,
      "pro": 136,
      "##ill": 137,
      "comp": 138,
      "eur": 139,
      "##id": 140,
      "for": 141,
      "200": 142,
      "##ec": 143,
      "##ation": 144,
      "##ut": 145,
      "it": 146,
      "fin": 147,
      "##ol": 148,
      "st": 149,
      "##em": 150,
      "is": 151,
      "compan": 152,
      "##per": 153,
      "on": 154,
      "con": 155,
      "##un": 156,
      "be": 157,
      "##us": 158,
      "##ter": 159,
      "##iv": 160,
      "sa": 161,
      "will": 162,
      "company": 163,
      "##ir": 164,
      "##and": 165,
      "##ers": 166,
      "##rom": 167,
      "from": 168,
      "##ish": 169,
      "##le": 170,
      "sh": 171,
      "as": 172,
      "##os": 173,
      "##th": 174,
      "re": 175,
      "##ig": 176,
      "##ul": 177,
      "##ch": 178,
      "##est": 179,
      "##ia": 180,
      "##ad": 181,
      "##ay": 182,
      "its": 183,
      "##ess": 184,
      "##ith": 185,
      "##ow": 186,
      "ex": 187,
      "##ment": 188,
      "with": 189,
      "per": 190,
      "##ly": 191,
      "##uct": 192,
      "ne": 193,
      "has": 194,
      "##pp": 195,
      "##im": 196,
      "oper": 197,
      "al": 198,
      "finn": 199,
      "##od": 200,
      "##ce": 201,
      "##ect": 202,
      "by": 203,
      "su": 204,
      "##ding": 205,
      "sal": 206,
      "said": 207,
      "at": 208,
      "net": 209,
      "inc": 210,
      "##ot": 211,
      "##ra": 212,
      "##ies": 213,
      "finnish": 214,
      "mar": 215,
      "##ear": 216,
      "en": 217,
      "mn": 218,
      "##por": 219,
      "##illion": 220,
      "##are": 221,
      "wh": 222,
      "ma": 223,
      "pl": 224,
      "##ev": 225,
      "gro": 226,
      "##uar": 227,
      "prof": 228,
      "sales": 229,
      "year": 230,
      "million": 231,
      "##ust": 232,
      "##um": 233,
      "##oc": 234,
      "that": 235,
      "profit": 236,
      "##ial": 237,
      "##ity": 238,
      "##ts": 239,
      "co": 240,
      "##00": 241,
      "ac": 242,
      "##erv": 243,
      "##ap": 244,
      "cont": 245,
      "pr": 246,
      "was": 247,
      "##ab": 248,
      "new": 249,
      "##ating": 250,
      "prod": 251,
      "##ement": 252,
      "ch": 253,
      "##art": 254,
      "are": 255,
      "serv": 256,
      "##ag": 257,
      "##land": 258,
      "##qu": 259,
      "##up": 260,
      "un": 261,
      "##ber": 262,
      "##ate": 263,
      "##op": 264,
      "##av": 265,
      "##ased": 266,
      "201": 267,
      "man": 268,
      "##ations": 269,
      "##ket": 270,
      "##ac": 271,
      "finland": 272,
      "cor": 273,
      "us": 274,
      "##mp": 275,
      "servic": 276,
      "or": 277,
      "##ine": 278,
      "hel": 279,
      "oy": 280,
      "##lo": 281,
      "##ki": 282,
      "eu": 283,
      "market": 284,
      "group": 285,
      "product": 286,
      "euro": 287,
      "##so": 288,
      "##ip": 289,
      "##ver": 290,
      "##ell": 291,
      "##ok": 292,
      "##uarter": 293,
      "##am": 294,
      "##ated": 295,
      "##ions": 296,
      "##ist": 297,
      "##ant": 298,
      "2009": 299,
      "share": 300,
      "##act": 301,
      "##ln": 302,
      "##all": 303,
      "operating": 304,
      "up": 305,
      "2008": 306,
      "bus": 307,
      "##ive": 308,
      "res": 309,
      "##iness": 310,
      "##ue": 311,
      "mln": 312,
      "business": 313,
      "##ain": 314,
      "inv": 315,
      "se": 316,
      "##oun": 317,
      "##igh": 318,
      "tr": 319,
      "##iod": 320,
      "##der": 321,
      "##ase": 322,
      "ad": 323,
      "dev": 324,
      "quarter": 325,
      "period": 326,
      "##day": 327,
      "ind": 328,
      "##ard": 329,
      "exp": 330,
      "mo": 331,
      "##ore": 332,
      "2007": 333,
      "##ign": 334,
      "off": 335,
      "ab": 336,
      "ag": 337,
      "##out": 338,
      "##og": 339,
      "##ans": 340,
      "tot": 341,
      "2010": 342,
      "bo": 343,
      "##ast": 344,
      "##ff": 345,
      "##ak": 346,
      "##ich": 347,
      "##ave": 348,
      "##ri": 349,
      "##arg": 350,
      "##ile": 351,
      "##lu": 352,
      "oyj": 353,
      "sol": 354,
      "cap": 355,
      "fir": 356,
      "##ech": 357,
      "dec": 358,
      "incre": 359,
      "app": 360,
      "##ang": 361,
      "we": 362,
      "##ank": 363,
      "##ice": 364,
      "##ther": 365,
      "also": 366,
      "000": 367,
      "bu": 368,
      "##res": 369,
      "services": 370,
      "invest": 371,
      "nor": 372,
      "which": 373,
      "have": 374,
      "##ork": 375,
      "##port": 376,
      "##ere": 377,
      "##ure": 378,
      "##pt": 379,
      "acc": 380,
      "##io": 381,
      "##ruct": 382,
      "##li": 383,
      "##ug": 384,
      "##anc": 385,
      "devel": 386,
      "part": 387,
      "##ors": 388,
      "##ares": 389,
      "am": 390,
      "##ract": 391,
      "est": 392,
      "de": 393,
      "he": 394,
      "rec": 395,
      "tech": 396,
      "shares": 397,
      "##ry": 398,
      "##ance": 399,
      "##ition": 400,
      "first": 401,
      "##ire": 402,
      "inclu": 403,
      "total": 404,
      "sp": 405,
      "techn": 406,
      "this": 407,
      "##if": 408,
      "2006": 409,
      "##ose": 410,
      "##ail": 411,
      "me": 412,
      "inter": 413,
      "sy": 414,
      "out": 415,
      "ann": 416,
      "contract": 417,
      "##ond": 418,
      "##ome": 419,
      "prov": 420,
      "##able": 421,
      "develop": 422,
      "##ember": 423,
      "##ult": 424,
      "##ock": 425,
      "##oss": 426,
      "##ical": 427,
      "cons": 428,
      "sec": 429,
      "hels": 430,
      "solut": 431,
      "##bs": 432,
      "int": 433,
      "supp": 434,
      "##inki": 435,
      "helsinki": 436,
      "comm": 437,
      "le": 438,
      "tel": 439,
      "been": 440,
      "10": 441,
      "compar": 442,
      "manag": 443,
      "mak": 444,
      "##ual": 445,
      "financ": 446,
      "provid": 447,
      "bank": 448,
      "##our": 449,
      "##end": 450,
      "agre": 451,
      "ear": 452,
      "mon": 453,
      "##ov": 454,
      "indust": 455,
      "rel": 456,
      "##man": 457,
      "##olog": 458,
      "loss": 459,
      "##ning": 460,
      "##loy": 461,
      "##ens": 462,
      "str": 463,
      "br": 464,
      "acqu": 465,
      "##fact": 466,
      "corpor": 467,
      "##ong": 468,
      "##ely": 469,
      "buil": 470,
      "emp": 471,
      "##ufact": 472,
      "manufact": 473,
      "nok": 474,
      "##int": 475,
      "unit": 476,
      "about": 477,
      "technolog": 478,
      "cust": 479,
      "##ub": 480,
      "##for": 481,
      "##pon": 482,
      "stock": 483,
      "po": 484,
      "##ood": 485,
      "##uring": 486,
      "custom": 487,
      "today": 488,
      "operations": 489,
      "compared": 490,
      "##ian": 491,
      "mob": 492,
      "ph": 493,
      "##ject": 494,
      "employ": 495,
      "met": 496,
      "sign": 497,
      "##cent": 498,
      "##ital": 499,
      "##ik": 500,
      "##ort": 501,
      "##stem": 502,
      "##uss": 503,
      "pa": 504,
      "pre": 505,
      "trans": 506,
      "expect": 507,
      "system": 508,
      "af": 509,
      "ele": 510,
      "##wn": 511,
      "financial": 512,
      "nokia": 513,
      "##one": 514,
      "##own": 515,
      "##uary": 516,
      "mobile": 517,
      "val": 518,
      "##ware": 519,
      "report": 520,
      "del": 521,
      "accor": 522,
      "ra": 523,
      "##ary": 524,
      "##und": 525,
      "production": 526,
      "##ange": 527,
      "investment": 528,
      "based": 529,
      "percent": 530,
      "##form": 531,
      "not": 532,
      "##ek": 533,
      "sw": 534,
      "cent": 535,
      "products": 536,
      "##ery": 537,
      "corporation": 538,
      "corres": 539,
      "all": 540,
      "includ": 541,
      "russ": 542,
      "project": 543,
      "subs": 544,
      "##lier": 545,
      "##struct": 546,
      "agreement": 547,
      "according": 548,
      "other": 549,
      "so": 550,
      "were": 551,
      "##ib": 552,
      "companies": 553,
      "##ates": 554,
      "##ugh": 555,
      "imp": 556,
      "own": 557,
      "##eo": 558,
      "##ft": 559,
      "##ced": 560,
      "appro": 561,
      "technology": 562,
      "12": 563,
      "fe": 564,
      "##ponding": 565,
      "corresponding": 566,
      "##cess": 567,
      "##ics": 568,
      "construct": 569,
      "plant": 570,
      "add": 571,
      "##erm": 572,
      "than": 573,
      "service": 574,
      "15": 575,
      "equ": 576,
      "##se": 577,
      "solutions": 578,
      "month": 579,
      "elect": 580,
      "deliv": 581,
      "cl": 582,
      "div": 583,
      "our": 584,
      "sc": 585,
      "##iz": 586,
      "##ility": 587,
      "##uld": 588,
      "##ace": 589,
      "##1v": 590,
      "##work": 591,
      "19": 592,
      "well": 593,
      "##urr": 594,
      "one": 595,
      "capital": 596,
      "##ld": 597,
      "##erg": 598,
      "construction": 599,
      "dire": 600,
      "jan": 601,
      "tw": 602,
      "##ount": 603,
      "direct": 604,
      "##ities": 605,
      "eur1": 606,
      "order": 607,
      "increased": 608,
      "##ubl": 609,
      "30": 610,
      "down": 611,
      "##ron": 612,
      "##ater": 613,
      "2005": 614,
      "##ight": 615,
      "11": 616,
      "wor": 617,
      "end": 618,
      "##rib": 619,
      "nord": 620,
      "over": 621,
      "network": 622,
      "under": 623,
      "more": 624,
      "##ould": 625,
      "##urn": 626,
      "##ade": 627,
      "##ass": 628,
      "start": 629,
      "##ower": 630,
      "act": 631,
      "their": 632,
      "reg": 633,
      "plan": 634,
      "increase": 635,
      "customers": 636,
      "swed": 637,
      "rose": 638,
      "term": 639,
      "paper": 640,
      "value": 641,
      "high": 642,
      "loc": 643,
      "##ise": 644,
      "gen": 645,
      "pct": 646,
      "##uk": 647,
      "med": 648,
      "om": 649,
      "work": 650,
      "##ven": 651,
      "##ence": 652,
      "##ata": 653,
      "grow": 654,
      "##ack": 655,
      "board": 656,
      "##ake": 657,
      "des": 658,
      "##ering": 659,
      "sam": 660,
      "contin": 661,
      "second": 662,
      "14": 663,
      "ret": 664,
      "some": 665,
      "##pr": 666,
      "process": 667,
      "coun": 668,
      "building": 669,
      "##isc": 670,
      "##ever": 671,
      "hand": 672,
      "##hol": 673,
      "##xim": 674,
      "announ": 675,
      "after": 676,
      "two": 677,
      "omx": 678,
      "25": 679,
      "##ders": 680,
      "##air": 681,
      "rep": 682,
      "sept": 683,
      "january": 684,
      "would": 685,
      "##ries": 686,
      "##ures": 687,
      "##ational": 688,
      "news": 689,
      "can": 690,
      "larg": 691,
      "##let": 692,
      "##ys": 693,
      "##ark": 694,
      "##eng": 695,
      "##oll": 696,
      "usd": 697,
      "development": 698,
      "pres": 699,
      "result": 700,
      "decre": 701,
      "employe": 702,
      "##ix": 703,
      "##enc": 704,
      "##ices": 705,
      "##unic": 706,
      "##ram": 707,
      "##ipment": 708,
      "deal": 709,
      "industry": 710,
      "gener": 711,
      "##ision": 712,
      "estim": 713,
      "intern": 714,
      "management": 715,
      "13": 716,
      "thir": 717,
      "eng": 718,
      "earlier": 719,
      "september": 720,
      "##ax": 721,
      "##ous": 722,
      "##ko": 723,
      "##ide": 724,
      "##ious": 725,
      "russia": 726,
      "aut": 727,
      "jo": 728,
      "pe": 729,
      "tim": 730,
      "##ports": 731,
      "equipment": 732,
      "third": 733,
      "la": 734,
      "##mn": 735,
      "##ines": 736,
      "mach": 737,
      "design": 738,
      "last": 739,
      "tra": 740,
      "##pe": 741,
      "expected": 742,
      "car": 743,
      "dist": 744,
      "hol": 745,
      "real": 746,
      "head": 747,
      "soft": 748,
      "deliver": 749,
      "count": 750,
      "publ": 751,
      "##ie": 752,
      "##ately": 753,
      "##ite": 754,
      "stor": 755,
      "lead": 756,
      "##over": 757,
      "##ve": 758,
      "##we": 759,
      "##ree": 760,
      "ass": 761,
      "##age": 762,
      "2011": 763,
      "into": 764,
      "ar": 765,
      "curr": 766,
      "##fore": 767,
      "##ward": 768,
      "annual": 769,
      "acquis": 770,
      "decreased": 771,
      "16": 772,
      "cr": 773,
      "ceo": 774,
      "glo": 775,
      "had": 776,
      "lo": 777,
      "##fer": 778,
      "##oper": 779,
      "same": 780,
      "glob": 781,
      "el": 782,
      "eff": 783,
      "fr": 784,
      "oct": 785,
      "rem": 786,
      "##ps": 787,
      "complet": 788,
      "cost": 789,
      "maker": 790,
      "employees": 791,
      "bet": 792,
      "fac": 793,
      "num": 794,
      "pos": 795,
      "iss": 796,
      "plc": 797,
      "price": 798,
      "##abl": 799,
      "signed": 800,
      "##ribut": 801,
      "media": 802,
      "software": 803,
      "##te": 804,
      "##ator": 805,
      "##ecom": 806,
      "##ateg": 807,
      "18": 808,
      "how": 809,
      "no": 810,
      "pers": 811,
      "##ht": 812,
      "##rough": 813,
      "##ents": 814,
      "neg": 815,
      "opt": 816,
      "red": 817,
      "##ina": 818,
      "##ons": 819,
      "##arm": 820,
      "##ene": 821,
      "ste": 822,
      "systems": 823,
      "electron": 824,
      "global": 825,
      "bas": 826,
      "##ud": 827,
      "##onn": 828,
      "europe": 829,
      "##ific": 830,
      "world": 831,
      "sell": 832,
      "##ka": 833,
      "##osed": 834,
      "while": 835,
      "##alled": 836,
      "both": 837,
      "announced": 838,
      "sect": 839,
      "##ach": 840,
      "##ost": 841,
      "##alt": 842,
      "##idi": 843,
      "##change": 844,
      "markets": 845,
      "data": 846,
      "##mm": 847,
      "exchange": 848,
      "amount": 849,
      "including": 850,
      "approxim": 851,
      "number": 852,
      "approximately": 853,
      "do": 854,
      "four": 855,
      "through": 856,
      "inst": 857,
      "##ative": 858,
      "##ala": 859,
      "##ights": 860,
      "brand": 861,
      "current": 862,
      "lt": 863,
      "inform": 864,
      "##iss": 865,
      "##ident": 866,
      "area": 867,
      "##ople": 868,
      "rele": 869,
      "people": 870,
      "billion": 871,
      "ka": 872,
      "line": 873,
      "may": 874,
      "now": 875,
      "##ues": 876,
      "##uuk": 877,
      "##ks": 878,
      "##ments": 879,
      "manufactur": 880,
      "prev": 881,
      "growth": 882,
      "engine": 883,
      "17": 884,
      "jun": 885,
      "mod": 886,
      "##ex": 887,
      "anal": 888,
      "##els": 889,
      "##ecial": 890,
      "impro": 891,
      "acquisition": 892,
      "ltd": 893,
      "##uukki": 894,
      "long": 895,
      "turn": 896,
      "va": 897,
      "##ric": 898,
      "##ola": 899,
      "reven": 900,
      "most": 901,
      "strateg": 902,
      "previous": 903,
      "nov": 904,
      "##uc": 905,
      "##ober": 906,
      "asp": 907,
      "fl": 908,
      "sm": 909,
      "##ey": 910,
      "##lic": 911,
      "##inen": 912,
      "##ars": 913,
      "##pert": 914,
      "euros": 915,
      "subsc": 916,
      "subsidi": 917,
      "months": 918,
      "distribut": 919,
      "october": 920,
      "35": 921,
      "fur": 922,
      "ful": 923,
      "gl": 924,
      "##ued": 925,
      "##ved": 926,
      "##gin": 927,
      "##alf": 928,
      "eur0": 929,
      "applic": 930,
      "amer": 931,
      "countries": 932,
      "disc": 933,
      "lat": 934,
      "##ma": 935,
      "stake": 936,
      "sharehol": 937,
      "supply": 938,
      "telecom": 939,
      "transact": 940,
      "feb": 941,
      "addition": 942,
      "tal": 943,
      "##sp": 944,
      "##rol": 945,
      "march": 946,
      "use": 947,
      "consum": 948,
      "communic": 949,
      "time": 950,
      "information": 951,
      "june": 952,
      "further": 953,
      "50": 954,
      "gr": 955,
      "non": 956,
      "##line": 957,
      "##20": 958,
      "##ory": 959,
      "before": 960,
      "manufacturing": 961,
      "retail": 962,
      "##ween": 963,
      "between": 964,
      "however": 965,
      "av": 966,
      "apr": 967,
      "during": 968,
      "half": 969,
      "pur": 970,
      "port": 971,
      "targ": 972,
      "##gr": 973,
      "##ila": 974,
      "##lex": 975,
      "ext": 976,
      "##ote": 977,
      "energ": 978,
      "buy": 979,
      "remain": 980,
      "steel": 981,
      "target": 982,
      "fell": 983,
      "power": 984,
      "##ea": 985,
      "these": 986,
      "##oti": 987,
      "##otec": 988,
      "includes": 989,
      "largest": 990,
      "negoti": 991,
      "engineering": 992,
      "april": 993,
      "23": 994,
      "21": 995,
      "cas": 996,
      "cut": 997,
      "oil": 998,
      "vol": 999,
      "##her": 1000,
      "##ined": 1001,
      "##inery": 1002,
      "##ators": 1003,
      "compet": 1004,
      "##este": 1005,
      "partn": 1006,
      "solution": 1007,
      "reported": 1008,
      "##ible": 1009,
      "gre": 1010,
      "##con": 1011,
      "##la": 1012,
      "they": 1013,
      "##urg": 1014,
      "dep": 1015,
      "acquir": 1016,
      "nordic": 1017,
      "swedish": 1018,
      "40": 1019,
      "aim": 1020,
      "made": 1021,
      "##ss": 1022,
      "##ling": 1023,
      "##gan": 1024,
      "##ished": 1025,
      "capac": 1026,
      "meas": 1027,
      "##nings": 1028,
      "release": 1029,
      "energy": 1030,
      "24": 1031,
      "bro": 1032,
      "foll": 1033,
      "lif": 1034,
      "##ria": 1035,
      "special": 1036,
      "estimated": 1037,
      "subsidiary": 1038,
      "bec": 1039,
      "balt": 1040,
      "food": 1041,
      "rights": 1042,
      "san": 1043,
      "three": 1044,
      "##ady": 1045,
      "##pping": 1046,
      "years": 1047,
      "china": 1048,
      "##ound": 1049,
      "totalled": 1050,
      "earnings": 1051,
      "signific": 1052,
      "international": 1053,
      "follow": 1054,
      "100": 1055,
      "29": 1056,
      "aug": 1057,
      "carg": 1058,
      "mill": 1059,
      "mater": 1060,
      "nine": 1061,
      "ty": 1062,
      "##rial": 1063,
      "##ari": 1064,
      "conc": 1065,
      "expand": 1066,
      "office": 1067,
      "industrial": 1068,
      "include": 1069,
      "electronics": 1070,
      "capacity": 1071,
      "significant": 1072,
      "dem": 1073,
      "lay": 1074,
      "min": 1075,
      "##min": 1076,
      "##round": 1077,
      "eur2": 1078,
      "form": 1079,
      "control": 1080,
      "expects": 1081,
      "activ": 1082,
      "transaction": 1083,
      "material": 1084,
      "26": 1085,
      "dr": 1086,
      "fund": 1087,
      "op": 1088,
      "pet": 1089,
      "sit": 1090,
      "sch": 1091,
      "##ting": 1092,
      "##unch": 1093,
      "sale": 1094,
      "main": 1095,
      "totaled": 1096,
      "manufacturer": 1097,
      "22": 1098,
      "det": 1099,
      "dig": 1100,
      "foc": 1101,
      "go": 1102,
      "good": 1103,
      "pat": 1104,
      "pay": 1105,
      "##led": 1106,
      "##jor": 1107,
      "##ind": 1108,
      "##ester": 1109,
      "##ord": 1110,
      "##ings": 1111,
      "##isk": 1112,
      "secur": 1113,
      "##ength": 1114,
      "machinery": 1115,
      "facility": 1116,
      "revenue": 1117,
      "cash": 1118,
      "focus": 1119,
      "air": 1120,
      "city": 1121,
      "day": 1122,
      "pol": 1123,
      "##ph": 1124,
      "2004": 1125,
      "says": 1126,
      "whol": 1127,
      "##ame": 1128,
      "trad": 1129,
      "rece": 1130,
      "local": 1131,
      "president": 1132,
      "sector": 1133,
      "americ": 1134,
      "negotiations": 1135,
      "volum": 1136,
      "august": 1137,
      "eps": 1138,
      "lower": 1139,
      "ro": 1140,
      "##da": 1141,
      "##ral": 1142,
      "##ruary": 1143,
      "##ge": 1144,
      "##omp": 1145,
      "##pped": 1146,
      "enter": 1147,
      "when": 1148,
      "major": 1149,
      "##ructure": 1150,
      "meet": 1151,
      "units": 1152,
      "pharm": 1153,
      "transfer": 1154,
      "raut": 1155,
      "nordea": 1156,
      "sweden": 1157,
      "launch": 1158,
      "february": 1159,
      "purch": 1160,
      "baltic": 1161,
      "33": 1162,
      "bel": 1163,
      "lit": 1164,
      "sin": 1165,
      "ti": 1166,
      "##hip": 1167,
      "ins": 1168,
      "propert": 1169,
      "forest": 1170,
      "stat": 1171,
      "sav": 1172,
      "such": 1173,
      "north": 1174,
      "related": 1175,
      "divid": 1176,
      "##ouse": 1177,
      "holding": 1178,
      "basware": 1179,
      "27": 1180,
      "award": 1181,
      "eb": 1182,
      "jul": 1183,
      "li": 1184,
      "ruukki": 1185,
      "te": 1186,
      "tax": 1187,
      "##burg": 1188,
      "##gram": 1189,
      "##quarter": 1190,
      "##erc": 1191,
      "##ones": 1192,
      "##anes": 1193,
      "##ising": 1194,
      "prop": 1195,
      "program": 1196,
      "compon": 1197,
      "##ives": 1198,
      "ent": 1199,
      "offer": 1200,
      "establ": 1201,
      "interest": 1202,
      "post": 1203,
      "phone": 1204,
      "repres": 1205,
      "##ency": 1206,
      "31": 1207,
      "kn": 1208,
      "lev": 1209,
      "mat": 1210,
      "set": 1211,
      "##uation": 1212,
      "##lement": 1213,
      "##als": 1214,
      "##itive": 1215,
      "##ici": 1216,
      "exc": 1217,
      "cooper": 1218,
      "support": 1219,
      "strength": 1220,
      "headquarter": 1221,
      "stora": 1222,
      "avail": 1223,
      "around": 1224,
      "log": 1225,
      "rest": 1226,
      "sout": 1227,
      "vot": 1228,
      "##xt": 1229,
      "##way": 1230,
      "##ja": 1231,
      "##ister": 1232,
      "comb": 1233,
      "corp": 1234,
      "orders": 1235,
      "upm": 1236,
      "developed": 1237,
      "provider": 1238,
      "projects": 1239,
      "director": 1240,
      "completed": 1241,
      "im": 1242,
      "ky": 1243,
      "##ert": 1244,
      "there": 1245,
      "##itions": 1246,
      "eur3": 1247,
      "##ems": 1248,
      "where": 1249,
      "maint": 1250,
      "adp": 1251,
      "eston": 1252,
      "russian": 1253,
      "division": 1254,
      "networks": 1255,
      "region": 1256,
      "leading": 1257,
      "option": 1258,
      "november": 1259,
      "discl": 1260,
      "sanom": 1261,
      "july": 1262,
      "available": 1263,
      "ah": 1264,
      "due": 1265,
      "qual": 1266,
      "sl": 1267,
      "uk": 1268,
      "won": 1269,
      "##ium": 1270,
      "##cote": 1271,
      "##ne": 1272,
      "##ern": 1273,
      "##ason": 1274,
      "##aster": 1275,
      "##ready": 1276,
      "##iday": 1277,
      "##ecut": 1278,
      "ref": 1279,
      "already": 1280,
      "suom": 1281,
      "env": 1282,
      "enso": 1283,
      "plans": 1284,
      "charg": 1285,
      "supplier": 1286,
      "strong": 1287,
      "directors": 1288,
      "general": 1289,
      "elcote": 1290,
      "shareholders": 1291,
      "elcoteq": 1292,
      "em": 1293,
      "his": 1294,
      "six": 1295,
      "yit": 1296,
      "##iff": 1297,
      "##bers": 1298,
      "##ily": 1299,
      "##ised": 1300,
      "##utical": 1301,
      "perform": 1302,
      "sub": 1303,
      "capman": 1304,
      "center": 1305,
      "added": 1306,
      "##aceutical": 1307,
      "personn": 1308,
      "turnover": 1309,
      "strategy": 1310,
      "distribution": 1311,
      "communications": 1312,
      "since": 1313,
      "dividend": 1314,
      "personnel": 1315,
      "36": 1316,
      "aff": 1317,
      "par": 1318,
      "pul": 1319,
      "pack": 1320,
      "rap": 1321,
      "tak": 1322,
      "##ience": 1323,
      "##fr": 1324,
      "##aff": 1325,
      "##era": 1326,
      "##ining": 1327,
      "##isa": 1328,
      "##ively": 1329,
      "##ump": 1330,
      "press": 1331,
      "agreed": 1332,
      "customer": 1333,
      "continue": 1334,
      "carri": 1335,
      "position": 1336,
      "amounted": 1337,
      "acquired": 1338,
      "pharmaceutical": 1339,
      "insur": 1340,
      "28": 1341,
      "80": 1342,
      "bl": 1343,
      "ger": 1344,
      "mid": 1345,
      "range": 1346,
      "##ration": 1347,
      "##na": 1348,
      "##vi": 1349,
      "##iron": 1350,
      "next": 1351,
      "prices": 1352,
      "produc": 1353,
      "##aging": 1354,
      "resp": 1355,
      "week": 1356,
      "make": 1357,
      "provide": 1358,
      "effect": 1359,
      "effici": 1360,
      "currently": 1361,
      "following": 1362,
      "demand": 1363,
      "represent": 1364,
      "cre": 1365,
      "diff": 1366,
      "esp": 1367,
      "fisk": 1368,
      "list": 1369,
      "tem": 1370,
      "##ga": 1371,
      "##ural": 1372,
      "##ental": 1373,
      "eur4": 1374,
      "##earch": 1375,
      "cover": 1376,
      "firm": 1377,
      "partic": 1378,
      "poh": 1379,
      "scan": 1380,
      "handling": 1381,
      "##ixed": 1382,
      "autom": 1383,
      "issue": 1384,
      "fourth": 1385,
      "analy": 1386,
      "previously": 1387,
      "full": 1388,
      "peters": 1389,
      "security": 1390,
      "awarded": 1391,
      "environ": 1392,
      "fiskars": 1393,
      "45": 1394,
      "fact": 1395,
      "mem": 1396,
      "tik": 1397,
      "##ah": 1398,
      "##aus": 1399,
      "##met": 1400,
      "##edit": 1401,
      "##ilities": 1402,
      "##ick": 1403,
      "exper": 1404,
      "execut": 1405,
      "##ements": 1406,
      "chain": 1407,
      "used": 1408,
      "##mpo": 1409,
      "##ipt": 1410,
      "trade": 1411,
      "developer": 1412,
      "estate": 1413,
      "##ized": 1414,
      "##iew": 1415,
      "credit": 1416,
      "friday": 1417,
      "costs": 1418,
      "grew": 1419,
      "performance": 1420,
      "german": 1421,
      "tempor": 1422,
      "petersburg": 1423,
      "fi": 1424,
      "fun": 1425,
      "kem": 1426,
      "mr": 1427,
      "qu": 1428,
      "tur": 1429,
      "via": 1430,
      "water": 1431,
      "##set": 1432,
      "##ds": 1433,
      "##ript": 1434,
      "##pa": 1435,
      "##pl": 1436,
      "##enance": 1437,
      "##its": 1438,
      "staff": 1439,
      "sampo": 1440,
      "##ular": 1441,
      "##ults": 1442,
      "alma": 1443,
      "print": 1444,
      "chair": 1445,
      "##ama": 1446,
      "results": 1447,
      "december": 1448,
      "commerc": 1449,
      "central": 1450,
      "processing": 1451,
      "joint": 1452,
      "subscript": 1453,
      "situation": 1454,
      "meeting": 1455,
      "headquartered": 1456,
      "maintenance": 1457,
      "quality": 1458,
      "insurance": 1459,
      "commercial": 1460,
      "38": 1461,
      "60": 1462,
      "found": 1463,
      "id": 1464,
      "lem": 1465,
      "pass": 1466,
      "ve": 1467,
      "vers": 1468,
      "##uce": 1469,
      "##ior": 1470,
      "##row": 1471,
      "##strom": 1472,
      "eur5": 1473,
      "stre": 1474,
      "organ": 1475,
      "##istics": 1476,
      "provides": 1477,
      "internet": 1478,
      "asset": 1479,
      "open": 1480,
      "detail": 1481,
      "america": 1482,
      "cooperation": 1483,
      "chairman": 1484,
      "70": 1485,
      "bn": 1486,
      "key": 1487,
      "sim": 1488,
      "sports": 1489,
      "take": 1490,
      "##oice": 1491,
      "##ned": 1492,
      "##vers": 1493,
      "##ke": 1494,
      "##urs": 1495,
      "items": 1496,
      "begin": 1497,
      "##ived": 1498,
      "##thing": 1499,
      "pret": 1500,
      "seg": 1501,
      "##ffic": 1502,
      "account": 1503,
      "recent": 1504,
      "commit": 1505,
      "##ourc": 1506,
      "built": 1507,
      "metso": 1508,
      "owned": 1509,
      "started": 1510,
      "terms": 1511,
      "auth": 1512,
      "traffic": 1513,
      "delivered": 1514,
      "volume": 1515,
      "voting": 1516,
      "sanoma": 1517,
      "pulp": 1518,
      "pohj": 1519,
      "environment": 1520,
      "ev": 1521,
      "fut": 1522,
      "sever": 1523,
      "ww": 1524,
      "war": 1525,
      "##tel": 1526,
      "##sh": 1527,
      "##oo": 1528,
      "##ha": 1529,
      "##ara": 1530,
      "##ises": 1531,
      "store": 1532,
      "##ira": 1533,
      "##ership": 1534,
      "need": 1535,
      "finnair": 1536,
      "summ": 1537,
      "play": 1538,
      "place": 1539,
      "chang": 1540,
      "respon": 1541,
      "##ainen": 1542,
      "access": 1543,
      "##mann": 1544,
      "poy": 1545,
      "implement": 1546,
      "register": 1547,
      "plants": 1548,
      "analys": 1549,
      "aspo": 1550,
      "small": 1551,
      "applications": 1552,
      "measures": 1553,
      "broad": 1554,
      "cargotec": 1555,
      "purchase": 1556,
      "ahl": 1557,
      "affect": 1558,
      "respect": 1559,
      "analyst": 1560,
      "kemira": 1561,
      "pretax": 1562,
      "several": 1563,
      "00": 1564,
      "fixed": 1565,
      "gover": 1566,
      "ok": 1567,
      "pan": 1568,
      "rental": 1569,
      "si": 1570,
      "tre": 1571,
      "tonn": 1572,
      "##uan": 1573,
      "##uced": 1574,
      "##ied": 1575,
      "##iason": 1576,
      "##fil": 1577,
      "init": 1578,
      "ant": 1579,
      "state": 1580,
      "cond": 1581,
      "being": 1582,
      "##iven": 1583,
      "reports": 1584,
      "near": 1585,
      "margin": 1586,
      "enabl": 1587,
      "plat": 1588,
      "##ability": 1589,
      "areas": 1590,
      "marketing": 1591,
      "research": 1592,
      "devices": 1593,
      "offering": 1594,
      "sold": 1595,
      "record": 1596,
      "teliason": 1597,
      "stockmann": 1598,
      "investments": 1599,
      "delivery": 1600,
      "##urring": 1601,
      "worth": 1602,
      "higher": 1603,
      "present": 1604,
      "european": 1605,
      "savings": 1606,
      "component": 1607,
      "level": 1608,
      "strengthen": 1609,
      "differ": 1610,
      "members": 1611,
      "future": 1612,
      "www": 1613,
      "respons": 1614,
      "ahlstrom": 1615,
      "teliasonera": 1616,
      "32": 1617,
      "base": 1618,
      "bio": 1619,
      "back": 1620,
      "col": 1621,
      "cle": 1622,
      "ol": 1623,
      "park": 1624,
      "very": 1625,
      "##ky": 1626,
      "##onen": 1627,
      "##ants": 1628,
      "##edul": 1629,
      "##ction": 1630,
      "##ided": 1631,
      "stand": 1632,
      "##ection": 1633,
      "##istration": 1634,
      "recurring": 1635,
      "teleste": 1636,
      "handset": 1637,
      "public": 1638,
      "positive": 1639,
      "issued": 1640,
      "reduct": 1641,
      "schedul": 1642,
      "whole": 1643,
      "posted": 1644,
      "south": 1645,
      "estonia": 1646,
      "poyry": 1647,
      "govern": 1648,
      "43": 1649,
      "cli": 1650,
      "kes": 1651,
      "neste": 1652,
      "##uit": 1653,
      "##son": 1654,
      "##yc": 1655,
      "##ker": 1656,
      "infr": 1657,
      "##edn": 1658,
      "tool": 1659,
      "only": 1660,
      "online": 1661,
      "reach": 1662,
      "##ows": 1663,
      "att": 1664,
      "who": 1665,
      "priv": 1666,
      "chie": 1667,
      "held": 1668,
      "upon": 1669,
      "device": 1670,
      "index": 1671,
      "ago": 1672,
      "decision": 1673,
      "decided": 1674,
      "contracts": 1675,
      "secure": 1676,
      "corporate": 1677,
      "afx": 1678,
      "install": 1679,
      "flow": 1680,
      "subscrib": 1681,
      "glass": 1682,
      "application": 1683,
      "life": 1684,
      "materials": 1685,
      "received": 1686,
      "packaging": 1687,
      "passeng": 1688,
      "author": 1689,
      "infrast": 1690,
      "chief": 1691,
      "best": 1692,
      "call": 1693,
      "home": 1694,
      "mult": 1695,
      "merg": 1696,
      "sur": 1697,
      "sel": 1698,
      "wedn": 1699,
      "##com": 1700,
      "##50": 1701,
      "##kur": 1702,
      "##esday": 1703,
      "##ale": 1704,
      "any": 1705,
      "eur6": 1706,
      "##olid": 1707,
      "conn": 1708,
      "##ung": 1709,
      "sho": 1710,
      "requ": 1711,
      "operators": 1712,
      "income": 1713,
      "##ocomp": 1714,
      "content": 1715,
      "##ages": 1716,
      "using": 1717,
      "##isting": 1718,
      "adv": 1719,
      "##aston": 1720,
      "##luding": 1721,
      "web": 1722,
      "outotec": 1723,
      "consult": 1724,
      "consolid": 1725,
      "employs": 1726,
      "transport": 1727,
      "##ization": 1728,
      "large": 1729,
      "##ramo": 1730,
      "publish": 1731,
      "##ission": 1732,
      "aspocomp": 1733,
      "digital": 1734,
      "excluding": 1735,
      "logistics": 1736,
      "import": 1737,
      "scanfil": 1738,
      "##ources": 1739,
      "pohjola": 1740,
      "tonnes": 1741,
      "infrastructure": 1742,
      "wednesday": 1743,
      "56": 1744,
      "cramo": 1745,
      "econ": 1746,
      "fu": 1747,
      "five": 1748,
      "ge": 1749,
      "gas": 1750,
      "ha": 1751,
      "squ": 1752,
      "test": 1753,
      "tek": 1754,
      "wood": 1755,
      "yester": 1756,
      "##ti": 1757,
      "##ipping": 1758,
      "##fol": 1759,
      "##les": 1760,
      "##ink": 1761,
      "them": 1762,
      "inn": 1763,
      "##alm": 1764,
      "compr": 1765,
      "##ider": 1766,
      "fort": 1767,
      "##emical": 1768,
      "ship": 1769,
      "incap": 1770,
      "sek": 1771,
      "admin": 1772,
      "investors": 1773,
      "##ically": 1774,
      "manager": 1775,
      "making": 1776,
      "##ension": 1777,
      "technologies": 1778,
      "close": 1779,
      "published": 1780,
      "strategic": 1781,
      "taxes": 1782,
      "combined": 1783,
      "rapala": 1784,
      "##ause": 1785,
      "executive": 1786,
      "different": 1787,
      "government": 1788,
      "econom": 1789,
      "square": 1790,
      "yesterday": 1791,
      "39": 1792,
      "48": 1793,
      "49": 1794,
      "500": 1795,
      "ap": 1796,
      "but": 1797,
      "big": 1798,
      "bene": 1799,
      "dro": 1800,
      "house": 1801,
      "jap": 1802,
      "tec": 1803,
      "tam": 1804,
      "vent": 1805,
      "x20": 1806,
      "##ted": 1807,
      "##va": 1808,
      "struct": 1809,
      "beer": 1810,
      "shipping": 1811,
      "existing": 1812,
      "ald": 1813,
      "maxim": 1814,
      "maga": 1815,
      "##oci": 1816,
      "india": 1817,
      "managing": 1818,
      "provided": 1819,
      "acquire": 1820,
      "paid": 1821,
      "##ize": 1822,
      "elisa": 1823,
      "glaston": 1824,
      "consumers": 1825,
      "portfol": 1826,
      "partner": 1827,
      "activities": 1828,
      "ebit": 1829,
      "liqu": 1830,
      "established": 1831,
      "tikkur": 1832,
      "##metic": 1833,
      "germany": 1834,
      "details": 1835,
      "analysis": 1836,
      "respectively": 1837,
      "okmetic": 1838,
      "scheduled": 1839,
      "kesko": 1840,
      "magaz": 1841,
      "tikkurila": 1842,
      "46": 1843,
      "47": 1844,
      "cal": 1845,
      "dis": 1846,
      "er": 1847,
      "fish": 1848,
      "fall": 1849,
      "kon": 1850,
      "lic": 1851,
      "low": 1852,
      "ny": 1853,
      "nat": 1854,
      "sq": 1855,
      "site": 1856,
      "ten": 1857,
      "##ty": 1858,
      "##til": 1859,
      "##ful": 1860,
      "##bo": 1861,
      "##mark": 1862,
      "##get": 1863,
      "##inal": 1864,
      "##ross": 1865,
      "##ety": 1866,
      "forec": 1867,
      "operation": 1868,
      "operates": 1869,
      "super": 1870,
      "atria": 1871,
      "##raz": 1872,
      "covers": 1873,
      "chemical": 1874,
      "again": 1875,
      "brid": 1876,
      "phones": 1877,
      "owner": 1878,
      "return": 1879,
      "deliveries": 1880,
      "look": 1881,
      "facilities": 1882,
      "brands": 1883,
      "telecomm": 1884,
      "##mink": 1885,
      "funds": 1886,
      "property": 1887,
      "disclosed": 1888,
      "particip": 1889,
      "experience": 1890,
      "turk": 1891,
      "platform": 1892,
      "componenta": 1893,
      "innov": 1894,
      "benef": 1895,
      "aldata": 1896,
      "maximum": 1897,
      "portfolio": 1898,
      "90": 1899,
      "aust": 1900,
      "clo": 1901,
      "fil": 1902,
      "flex": 1903,
      "if": 1904,
      "lith": 1905,
      "lik": 1906,
      "nar": 1907,
      "tall": 1908,
      "tues": 1909,
      "way": 1910,
      "wind": 1911,
      "##to": 1912,
      "##ep": 1913,
      "##egr": 1914,
      "##ring": 1915,
      "##ranes": 1916,
      "##oint": 1917,
      "##par": 1918,
      "##kt": 1919,
      "thurs": 1920,
      "##aruukki": 1921,
      "##ited": 1922,
      "##itut": 1923,
      "##eless": 1924,
      "##eto": 1925,
      "prot": 1926,
      "##ideo": 1927,
      "##ecranes": 1928,
      "conver": 1929,
      "asia": 1930,
      "##imek": 1931,
      "operator": 1932,
      "marimek": 1933,
      "enable": 1934,
      "cour": 1935,
      "##aces": 1936,
      "##okump": 1937,
      "resources": 1938,
      "move": 1939,
      "offers": 1940,
      "##ption": 1941,
      "meat": 1942,
      "outokump": 1943,
      "developing": 1944,
      "integr": 1945,
      "##ught": 1946,
      "closed": 1947,
      "planning": 1948,
      "located": 1949,
      "generated": 1950,
      "stores": 1951,
      "associ": 1952,
      "electronic": 1953,
      "improv": 1954,
      "improve": 1955,
      "consumer": 1956,
      "poland": 1957,
      "rautaruukki": 1958,
      "tieto": 1959,
      "team": 1960,
      "restruct": 1961,
      "listed": 1962,
      "subscription": 1963,
      "lemmink": 1964,
      "treat": 1965,
      "fortum": 1966,
      "tecn": 1967,
      "konecranes": 1968,
      "natural": 1969,
      "lithuan": 1970,
      "tuesday": 1971,
      "thursday": 1972,
      "marimekko": 1973,
      "outokumpu": 1974,
      "42": 1975,
      "55": 1976,
      "57": 1977,
      "51": 1978,
      "alex": 1979,
      "bre": 1980,
      "bond": 1981,
      "kone": 1982,
      "lond": 1983,
      "mor": 1984,
      "nas": 1985,
      "nav": 1986,
      "sk": 1987,
      "video": 1988,
      "win": 1989,
      "went": 1990,
      "##uch": 1991,
      "##ef": 1992,
      "##aara": 1993,
      "##bank": 1994,
      "##hod": 1995,
      "##ann": 1996,
      "##arily": 1997,
      "##ases": 1998,
      "##eld": 1999,
      "##ters": 2000,
      "she": 2001,
      "within": 2002,
      "##artment": 2003,
      "businesses": 2004,
      "##ounts": 2005,
      "offic": 2006,
      "book": 2007,
      "##thern": 2008,
      "technop": 2009,
      "makes": 2010,
      "providing": 2011,
      "##ove": 2012,
      "bring": 2013,
      "raw": 2014,
      "included": 2015,
      "199": 2016,
      "continued": 2017,
      "##holm": 2018,
      "estimates": 2019,
      "arr": 2020,
      "options": 2021,
      "##mmene": 2022,
      "improved": 2023,
      "talv": 2024,
      "become": 2025,
      "because": 2026,
      "##daq": 2027,
      "kymmene": 2028,
      "slight": 2029,
      "versus": 2030,
      "clear": 2031,
      "structures": 2032,
      "narrow": 2033,
      "restructuring": 2034,
      "alexand": 2035,
      "london": 2036,
      "nasdaq": 2037,
      "41": 2038,
      "53": 2039,
      "dom": 2040,
      "fair": 2041,
      "har": 2042,
      "il": 2043,
      "mus": 2044,
      "nn": 2045,
      "ple": 2046,
      "ru": 2047,
      "ram": 2048,
      "sat": 2049,
      "vess": 2050,
      "##cement": 2051,
      "##aht": 2052,
      "##aja": 2053,
      "##other": 2054,
      "##band": 2055,
      "##ination": 2056,
      "another": 2057,
      "##urement": 2058,
      "##asing": 2059,
      "##isio": 2060,
      "##irent": 2061,
      "alt": 2062,
      "suc": 2063,
      "contain": 2064,
      "##ably": 2065,
      "upgr": 2066,
      "##ards": 2067,
      "offs": 2068,
      "bought": 2069,
      "investor": 2070,
      "consider": 2071,
      "##ensive": 2072,
      "build": 2073,
      "metal": 2074,
      "method": 2075,
      "prem": 2076,
      "divest": 2077,
      "planned": 2078,
      "additional": 2079,
      "cargo": 2080,
      "liters": 2081,
      "properties": 2082,
      "entire": 2083,
      "espoo": 2084,
      "temporary": 2085,
      "printing": 2086,
      "segment": 2087,
      "recently": 2088,
      "summer": 2089,
      "broadband": 2090,
      "enables": 2091,
      "tekla": 2092,
      "administration": 2093,
      "venture": 2094,
      "x20ac": 2095,
      "bridge": 2096,
      "telecommunic": 2097,
      "37": 2098,
      "300": 2099,
      "65": 2100,
      "braz": 2101,
      "cir": 2102,
      "cert": 2103,
      "den": 2104,
      "date": 2105,
      "fisc": 2106,
      "gain": 2107,
      "hy": 2108,
      "hous": 2109,
      "just": 2110,
      "mos": 2111,
      "os": 2112,
      "run": 2113,
      "rout": 2114,
      "sil": 2115,
      "tex": 2116,
      "vis": 2117,
      "vac": 2118,
      "vice": 2119,
      "wir": 2120,
      "##uing": 2121,
      "##ii": 2122,
      "##iev": 2123,
      "##amp": 2124,
      "##bt": 2125,
      "##by": 2126,
      "##mb": 2127,
      "##ying": 2128,
      "##house": 2129,
      "##gest": 2130,
      "##ws": 2131,
      "##inc": 2132,
      "##ints": 2133,
      "##orp": 2134,
      "##ories": 2135,
      "##rod": 2136,
      "##aly": 2137,
      "##omm": 2138,
      "##ential": 2139,
      "structure": 2140,
      "##emens": 2141,
      "##ivaara": 2142,
      "##ected": 2143,
      "change": 2144,
      "##berg": 2145,
      "users": 2146,
      "##look": 2147,
      "adj": 2148,
      "expans": 2149,
      "syn": 2150,
      "outlook": 2151,
      "monday": 2152,
      "stockholm": 2153,
      "points": 2154,
      "raisio": 2155,
      "impact": 2156,
      "few": 2157,
      "electric": 2158,
      "working": 2159,
      "growing": 2160,
      "announcement": 2161,
      "newspa": 2162,
      "machines": 2163,
      "country": 2164,
      "france": 2165,
      "institut": 2166,
      "vaaht": 2167,
      "fully": 2168,
      "patent": 2169,
      "trading": 2170,
      "below": 2171,
      "establish": 2172,
      "##astern": 2173,
      "carried": 2174,
      "efficiency": 2175,
      "automation": 2176,
      "stream": 2177,
      "assets": 2178,
      "beginning": 2179,
      "siemens": 2180,
      "responsible": 2181,
      "clients": 2182,
      "tools": 2183,
      "private": 2184,
      "subscribed": 2185,
      "liquid": 2186,
      "magazine": 2187,
      "arrang": 2188,
      "talvivaara": 2189,
      "ramirent": 2190,
      "telecommunications": 2191,
      "brazil": 2192,
      "circ": 2193,
      "fiscal": 2194,
      "expansion": 2195,
      "newspaper": 2196,
      "vaahto": 2197,
      "01": 2198,
      "34": 2199,
      "44": 2200,
      "74": 2201,
      "75": 2202,
      "bi": 2203,
      "bar": 2204,
      "cenc": 2205,
      "gu": 2206,
      "hon": 2207,
      "lab": 2208,
      "national": 2209,
      "pot": 2210,
      "right": 2211,
      "var": 2212,
      "##ier": 2213,
      "##ress": 2214,
      "##co": 2215,
      "##ou": 2216,
      "##less": 2217,
      "##lined": 2218,
      "##gian": 2219,
      "##wide": 2220,
      "##erning": 2221,
      "##ending": 2222,
      "top": 2223,
      "##ists": 2224,
      "##isala": 2225,
      "prom": 2226,
      "eur7": 2227,
      "forward": 2228,
      "##olis": 2229,
      "stud": 2230,
      "##oski": 2231,
      "operational": 2232,
      "##ody": 2233,
      "invol": 2234,
      "above": 2235,
      "northern": 2236,
      "space": 2237,
      "##ified": 2238,
      "commission": 2239,
      "industries": 2240,
      "reporting": 2241,
      "agreements": 2242,
      "##ences": 2243,
      "jobs": 2244,
      "machine": 2245,
      "complete": 2246,
      "persons": 2247,
      "negative": 2248,
      "##ostaja": 2249,
      "model": 2250,
      "vaisala": 2251,
      "latv": 2252,
      "latest": 2253,
      "communication": 2254,
      "aims": 2255,
      "concerning": 2256,
      "mainly": 2257,
      "digia": 2258,
      "raute": 2259,
      "holdings": 2260,
      "know": 2261,
      "known": 2262,
      "suomen": 2263,
      "changes": 2264,
      "panostaja": 2265,
      "bioh": 2266,
      "installation": 2267,
      "connect": 2268,
      "shopping": 2269,
      "consolidated": 2270,
      "treatment": 2271,
      "slightly": 2272,
      "alexandria": 2273,
      "adjust": 2274,
      "cencorp": 2275,
      "400": 2276,
      "52": 2277,
      "bid": 2278,
      "dil": 2279,
      "ever": 2280,
      "fig": 2281,
      "given": 2282,
      "hu": 2283,
      "hot": 2284,
      "jy": 2285,
      "lines": 2286,
      "mic": 2287,
      "name": 2288,
      "pension": 2289,
      "rad": 2290,
      "rise": 2291,
      "##ta": 2292,
      "##side": 2293,
      "##0m": 2294,
      "##red": 2295,
      "##comp": 2296,
      "##val": 2297,
      "##put": 2298,
      "##gn": 2299,
      "##jo": 2300,
      "##eries": 2301,
      "##inn": 2302,
      "told": 2303,
      "##isation": 2304,
      "##icated": 2305,
      "##stand": 2306,
      "comptel": 2307,
      "sto": 2308,
      "states": 2309,
      "conf": 2310,
      "shop": 2311,
      "short": 2312,
      "read": 2313,
      "expert": 2314,
      "aland": 2315,
      "##ceed": 2316,
      "mail": 2317,
      "##umb": 2318,
      "##ipal": 2319,
      "able": 2320,
      "##rict": 2321,
      "weak": 2322,
      "norway": 2323,
      "##onda": 2324,
      "introd": 2325,
      "banks": 2326,
      "##ibility": 2327,
      "owns": 2328,
      "150": 2329,
      "equity": 2330,
      "##ublic": 2331,
      "starting": 2332,
      "location": 2333,
      "art": 2334,
      "revenues": 2335,
      "partners": 2336,
      "##phone": 2337,
      "representing": 2338,
      "factory": 2339,
      "environmental": 2340,
      "olvi": 2341,
      "clothing": 2342,
      "technopolis": 2343,
      "narrowed": 2344,
      "domest": 2345,
      "wireless": 2346,
      "04": 2347,
      "3g": 2348,
      "67": 2349,
      "bal": 2350,
      "cz": 2351,
      "dail": 2352,
      "es": 2353,
      "each": 2354,
      "eastern": 2355,
      "fer": 2356,
      "fav": 2357,
      "gra": 2358,
      "ho": 2359,
      "hit": 2360,
      "kar": 2361,
      "lim": 2362,
      "pain": 2363,
      "rate": 2364,
      "tap": 2365,
      "wa": 2366,
      "your": 2367,
      "you": 2368,
      "##ton": 2369,
      "##cow": 2370,
      "##nam": 2371,
      "##most": 2372,
      "##han": 2373,
      "##anch": 2374,
      "##orts": 2375,
      "##edi": 2376,
      "##eder": 2377,
      "##ats": 2378,
      "##entum": 2379,
      "comput": 2380,
      "##uted": 2381,
      "final": 2382,
      "##ivers": 2383,
      "rev": 2384,
      "cop": 2385,
      "prim": 2386,
      "waste": 2387,
      "##atings": 2388,
      "core": 2389,
      "invent": 2390,
      "indian": 2391,
      "declined": 2392,
      "spring": 2393,
      "sponda": 2394,
      "technical": 2395,
      "outside": 2396,
      "financing": 2397,
      "banking": 2398,
      "##ends": 2399,
      "##ense": 2400,
      "manufacture": 2401,
      "##iking": 2402,
      "afric": 2403,
      "class": 2404,
      "##prise": 2405,
      "##ference": 2406,
      "##hti": 2407,
      "selling": 2408,
      "shareholder": 2409,
      "talentum": 2410,
      "remaining": 2411,
      "competition": 2412,
      "department": 2413,
      "concern": 2414,
      "goods": 2415,
      "propos": 2416,
      "efficient": 2417,
      "veh": 2418,
      "initi": 2419,
      "##kyla": 2420,
      "uponor": 2421,
      "passenger": 2422,
      "important": 2423,
      "economic": 2424,
      "biggest": 2425,
      "japan": 2426,
      "nyse": 2427,
      "lemminkainen": 2428,
      "navig": 2429,
      "music": 2430,
      "moscow": 2431,
      "electricity": 2432,
      "various": 2433,
      "biohit": 2434,
      "domestic": 2435,
      "czech": 2436,
      "daily": 2437,
      "64": 2438,
      "68": 2439,
      "62": 2440,
      "61": 2441,
      "88": 2442,
      "85": 2443,
      "came": 2444,
      "did": 2445,
      "ed": 2446,
      "imm": 2447,
      "later": 2448,
      "member": 2449,
      "mik": 2450,
      "sing": 2451,
      "soc": 2452,
      "viking": 2453,
      "##den": 2454,
      "##ck": 2455,
      "##vel": 2456,
      "##bor": 2457,
      "##kka": 2458,
      "##go": 2459,
      "##inary": 2460,
      "##onal": 2461,
      "##organ": 2462,
      "##atch": 2463,
      "##itors": 2464,
      "##stain": 2465,
      "saf": 2466,
      "saw": 2467,
      "##ired": 2468,
      "##lect": 2469,
      "##osing": 2470,
      "##ulu": 2471,
      "without": 2472,
      "almost": 2473,
      "sum": 2474,
      "sustain": 2475,
      "union": 2476,
      "usa": 2477,
      "##anta": 2478,
      "offices": 2479,
      "norwe": 2480,
      "##ancy": 2481,
      "parties": 2482,
      "recomm": 2483,
      "united": 2484,
      "elev": 2485,
      "approved": 2486,
      "approval": 2487,
      "actual": 2488,
      "continuing": 2489,
      "republic": 2490,
      "generation": 2491,
      "loan": 2492,
      "worldwide": 2493,
      "cutting": 2494,
      "volumes": 2495,
      "road": 2496,
      "enterprise": 2497,
      "statement": 2498,
      "charging": 2499,
      "producer": 2500,
      "function": 2501,
      "##amaki": 2502,
      "reductions": 2503,
      "transportation": 2504,
      "dropped": 2505,
      "success": 2506,
      "potential": 2507,
      "huht": 2508,
      "micro": 2509,
      "social": 2510,
      "norwegian": 2511,
      "06": 2512,
      "03": 2513,
      "08": 2514,
      "600": 2515,
      "800": 2516,
      "dia": 2517,
      "east": 2518,
      "efore": 2519,
      "fre": 2520,
      "flo": 2521,
      "fram": 2522,
      "get": 2523,
      "ju": 2524,
      "let": 2525,
      "nam": 2526,
      "old": 2527,
      "put": 2528,
      "pop": 2529,
      "pip": 2530,
      "ren": 2531,
      "side": 2532,
      "tul": 2533,
      "tons": 2534,
      "ur": 2535,
      "voice": 2536,
      "wide": 2537,
      "##rit": 2538,
      "##cc": 2539,
      "##can": 2540,
      "##ness": 2541,
      "##vas": 2542,
      "##lines": 2543,
      "thom": 2544,
      "##ano": 2545,
      "##ench": 2546,
      "##alth": 2547,
      "##ional": 2548,
      "##itor": 2549,
      "##ilar": 2550,
      "##asts": 2551,
      "##elt": 2552,
      "stain": 2553,
      "stood": 2554,
      "##pere": 2555,
      "##iving": 2556,
      "##ires": 2557,
      "##osen": 2558,
      "export": 2559,
      "##imal": 2560,
      "##imari": 2561,
      "alum": 2562,
      "salcomp": 2563,
      "ens": 2564,
      "what": 2565,
      "produced": 2566,
      "serve": 2567,
      "##lands": 2568,
      "univers": 2569,
      "many": 2570,
      "resident": 2571,
      "invoice": 2572,
      "separ": 2573,
      "expl": 2574,
      "increasing": 2575,
      "##anced": 2576,
      "among": 2577,
      "health": 2578,
      "recyc": 2579,
      "spe": 2580,
      "##ended": 2581,
      "early": 2582,
      "manufactures": 2583,
      "##uble": 2584,
      "metres": 2585,
      "metals": 2586,
      "raised": 2587,
      "eur15": 2588,
      "works": 2589,
      "workers": 2590,
      "presence": 2591,
      "designed": 2592,
      "acquisitions": 2593,
      "completion": 2594,
      "##atory": 2595,
      "personal": 2596,
      "358": 2597,
      "launched": 2598,
      "tiimari": 2599,
      "components": 2600,
      "suominen": 2601,
      "temporarily": 2602,
      "analysts": 2603,
      "conditions": 2604,
      "fuel": 2605,
      "tampere": 2606,
      "benefon": 2607,
      "tallinn": 2608,
      "improvement": 2609,
      "lithuania": 2610,
      "pleased": 2611,
      "diluted": 2612,
      "africa": 2613,
      "vehic": 2614,
      "recommend": 2615,
      "huhtamaki": 2616,
      "stainless": 2617,
      "54": 2618,
      "58": 2619,
      "63": 2620,
      "99": 2621,
      "ach": 2622,
      "aud": 2623,
      "bul": 2624,
      "bot": 2625,
      "cell": 2626,
      "dut": 2627,
      "dans": 2628,
      "even": 2629,
      "fam": 2630,
      "free": 2631,
      "gave": 2632,
      "gives": 2633,
      "hk": 2634,
      "ir": 2635,
      "kro": 2636,
      "light": 2637,
      "my": 2638,
      "mal": 2639,
      "mot": 2640,
      "mech": 2641,
      "much": 2642,
      "ore": 2643,
      "oulu": 2644,
      "q1": 2645,
      "rail": 2646,
      "rates": 2647,
      "sen": 2648,
      "sev": 2649,
      "tv": 2650,
      "vi": 2651,
      "vanta": 2652,
      "wel": 2653,
      "ware": 2654,
      "##tr": 2655,
      "##ai": 2656,
      "##nia": 2657,
      "##med": 2658,
      "##kar": 2659,
      "##1s": 2660,
      "##wer": 2661,
      "those": 2662,
      "##aries": 2663,
      "##atal": 2664,
      "toget": 2665,
      "##omen": 2666,
      "##omark": 2667,
      "##old": 2668,
      "still": 2669,
      "station": 2670,
      "##ivity": 2671,
      "should": 2672,
      "##ays": 2673,
      "mark": 2674,
      "ground": 2675,
      "##umn": 2676,
      "user": 2677,
      "ori": 2678,
      "##verage": 2679,
      "see": 2680,
      "sea": 2681,
      "seen": 2682,
      "##aken": 2683,
      "##lud": 2684,
      "appoint": 2685,
      "heat": 2686,
      "heating": 2687,
      "comparable": 2688,
      "##ource": 2689,
      "branch": 2690,
      "phase": 2691,
      "employment": 2692,
      "mets": 2693,
      "feed": 2694,
      "directed": 2695,
      "overall": 2696,
      "papers": 2697,
      "processes": 2698,
      "employee": 2699,
      "autumn": 2700,
      "travel": 2701,
      "holds": 2702,
      "cranes": 2703,
      "basis": 2704,
      "sectors": 2705,
      "does": 2706,
      "kaup": 2707,
      "modern": 2708,
      "##ecially": 2709,
      "smart": 2710,
      "consumption": 2711,
      "##hern": 2712,
      "partnership": 2713,
      "mills": 2714,
      "controlled": 2715,
      "airline": 2716,
      "american": 2717,
      "entered": 2718,
      "levels": 2719,
      "southern": 2720,
      "##news": 2721,
      "weeks": 2722,
      "especially": 2723,
      "ident": 2724,
      "registered": 2725,
      "affecto": 2726,
      "initial": 2727,
      "reduction": 2728,
      "calls": 2729,
      "selected": 2730,
      "forecasts": 2731,
      "flexible": 2732,
      "like": 2733,
      "vacon": 2734,
      "labor": 2735,
      "latvia": 2736,
      "##standing": 2737,
      "expertise": 2738,
      "safety": 2739,
      "alumin": 2740,
      "residential": 2741,
      "achiev": 2742,
      "mechan": 2743,
      "senior": 2744,
      "together": 2745,
      "02": 2746,
      "09": 2747,
      "59": 2748,
      "66": 2749,
      "76": 2750,
      "73": 2751,
      "77": 2752,
      "71": 2753,
      "86": 2754,
      "89": 2755,
      "81": 2756,
      "akt": 2757,
      "doc": 2758,
      "doll": 2759,
      "et": 2760,
      "far": 2761,
      "furn": 2762,
      "gy": 2763,
      "gam": 2764,
      "give": 2765,
      "hist": 2766,
      "hks": 2767,
      "ix": 2768,
      "less": 2769,
      "mer": 2770,
      "nr": 2771,
      "opp": 2772,
      "rat": 2773,
      "ut": 2774,
      "view": 2775,
      "west": 2776,
      "##iation": 2777,
      "##dance": 2778,
      "##cl": 2779,
      "##off": 2780,
      "##ough": 2781,
      "##ving": 2782,
      "##mo": 2783,
      "##gen": 2784,
      "##inav": 2785,
      "then": 2786,
      "##onos": 2787,
      "##anen": 2788,
      "tom": 2789,
      "##ured": 2790,
      "##iture": 2791,
      "##oman": 2792,
      "##icon": 2793,
      "come": 2794,
      "##stan": 2795,
      "##reg": 2796,
      "##illing": 2797,
      "compos": 2798,
      "complex": 2799,
      "##eck": 2800,
      "italy": 2801,
      "stone": 2802,
      "conference": 2803,
      "##unity": 2804,
      "##ush": 2805,
      "##andinav": 2806,
      "show": 2807,
      "##iab": 2808,
      "exports": 2809,
      "##lying": 2810,
      "##cept": 2811,
      "##tsila": 2812,
      "across": 2813,
      "chall": 2814,
      "##aged": 2815,
      "und": 2816,
      "##ope": 2817,
      "orion": 2818,
      "##kian": 2819,
      "##ained": 2820,
      "sepp": 2821,
      "webs": 2822,
      "##anks": 2823,
      "amounts": 2824,
      "def": 2825,
      "managed": 2826,
      "accordance": 2827,
      "ownership": 2828,
      "electr": 2829,
      "ordered": 2830,
      "terminal": 2831,
      "job": 2832,
      "hold": 2833,
      "load": 2834,
      "better": 2835,
      "nokian": 2836,
      "reduce": 2837,
      "##ification": 2838,
      "double": 2839,
      "released": 2840,
      "kaz": 2841,
      "manufacturers": 2842,
      "targets": 2843,
      "competitive": 2844,
      "acquiring": 2845,
      "specialty": 2846,
      "tyres": 2847,
      "mining": 2848,
      "activity": 2849,
      "citycon": 2850,
      "wholes": 2851,
      "statements": 2852,
      "adpnews": 2853,
      "estonian": 2854,
      "disclose": 2855,
      "taken": 2856,
      "carrier": 2857,
      "pharmaceuticals": 2858,
      "street": 2859,
      "similar": 2860,
      "needs": 2861,
      "player": 2862,
      "conduct": 2863,
      "recorded": 2864,
      "reached": 2865,
      "consulting": 2866,
      "happ": 2867,
      "fishing": 2868,
      "chemicals": 2869,
      "tietoen": 2870,
      "tecnomen": 2871,
      "brew": 2872,
      "sheet": 2873,
      "officer": 2874,
      "denmark": 2875,
      "route": 2876,
      "silicon": 2877,
      "study": 2878,
      "every": 2879,
      "jyvas": 2880,
      "immedi": 2881,
      "frame": 2882,
      "thomson": 2883,
      "ensure": 2884,
      "vantaa": 2885,
      "gyps": 2886,
      "hkscan": 2887,
      "ixonos": 2888,
      "opport": 2889,
      "challeng": 2890,
      "jyvaskyla": 2891,
      "07": 2892,
      "82": 2893,
      "87": 2894,
      "91": 2895,
      "bor": 2896,
      "cit": 2897,
      "cement": 2898,
      "categ": 2899,
      "cross": 2900,
      "fle": 2901,
      "fri": 2902,
      "feder": 2903,
      "jump": 2904,
      "kore": 2905,
      "live": 2906,
      "mess": 2907,
      "nom": 2908,
      "nick": 2909,
      "ob": 2910,
      "pc": 2911,
      "poss": 2912,
      "pek": 2913,
      "pons": 2914,
      "sent": 2915,
      "ski": 2916,
      "sli": 2917,
      "series": 2918,
      "##ument": 2919,
      "##upp": 2920,
      "##rv": 2921,
      "##fo": 2922,
      "##come": 2923,
      "##no": 2924,
      "##lt": 2925,
      "##mar": 2926,
      "##ged": 2927,
      "##greg": 2928,
      "##wh": 2929,
      "##inated": 2930,
      "##inks": 2931,
      "##ened": 2932,
      "##atives": 2933,
      "too": 2934,
      "##elim": 2935,
      "##str": 2936,
      "eur9": 2937,
      "2003": 2938,
      "fine": 2939,
      "##ole": 2940,
      "concent": 2941,
      "##tern": 2942,
      "asian": 2943,
      "ready": 2944,
      "reorgan": 2945,
      "##ules": 2946,
      "##ima": 2947,
      "operate": 2948,
      "finnlines": 2949,
      "nether": 2950,
      "profitability": 2951,
      "coatings": 2952,
      "prelim": 2953,
      "produce": 2954,
      "until": 2955,
      "##open": 2956,
      "2012": 2957,
      "##vert": 2958,
      "##okatal": 2959,
      "upd": 2960,
      "advert": 2961,
      "debt": 2962,
      "interim": 2963,
      "consists": 2964,
      "intell": 2965,
      "least": 2966,
      "##enses": 2967,
      "brit": 2968,
      "raise": 2969,
      "notice": 2970,
      "allow": 2971,
      "approach": 2972,
      "feat": 2973,
      "science": 2974,
      "eur13": 2975,
      "locations": 2976,
      "decrease": 2977,
      "estimate": 2978,
      "designs": 2979,
      "district": 2980,
      "##wards": 2981,
      "##teq": 2982,
      "##hta": 2983,
      "kauk": 2984,
      "transactions": 2985,
      "retailer": 2986,
      "buyout": 2987,
      "measurement": 2988,
      "broker": 2989,
      "typ": 2990,
      "type": 2991,
      "conclud": 2992,
      "significantly": 2993,
      "former": 2994,
      "drives": 2995,
      "sites": 2996,
      "going": 2997,
      "##estern": 2998,
      "receive": 2999,
      "majority": 3000,
      "transferred": 3001,
      "propose": 3002,
      "proposed": 3003,
      "subst": 3004,
      "parts": 3005,
      "blue": 3006,
      "producing": 3007,
      "create": 3008,
      "particular": 3009,
      "fiber": 3010,
      "subscriptions": 3011,
      "organization": 3012,
      "accounted": 3013,
      "accounting": 3014,
      "committe": 3015,
      "warning": 3016,
      "wartsila": 3017,
      "standard": 3018,
      "passengers": 3019,
      "merger": 3020,
      "surf": 3021,
      "geos": 3022,
      "against": 3023,
      "association": 3024,
      "ruokatal": 3025,
      "container": 3026,
      "circuit": 3027,
      "computer": 3028,
      "navigation": 3029,
      "sustainable": 3030,
      "elevators": 3031,
      "floor": 3032,
      "danske": 3033,
      "family": 3034,
      "warehouse": 3035,
      "kaupthing": 3036,
      "aktia": 3037,
      "website": 3038,
      "electrical": 3039,
      "tietoenator": 3040,
      "gypsii": 3041,
      "nickel": 3042,
      "ponsse": 3043,
      "concentr": 3044,
      "netherlands": 3045,
      "preliminary": 3046,
      "ruokatalo": 3047,
      "700": 3048,
      "94": 3049,
      "900": 3050,
      "average": 3051,
      "care": 3052,
      "canc": 3053,
      "cable": 3054,
      "coll": 3055,
      "called": 3056,
      "dan": 3057,
      "eight": 3058,
      "ft": 3059,
      "fire": 3060,
      "him": 3061,
      "hard": 3062,
      "hour": 3063,
      "hong": 3064,
      "kal": 3065,
      "kil": 3066,
      "ll": 3067,
      "mw": 3068,
      "munic": 3069,
      "ninen": 3070,
      "ov": 3071,
      "ply": 3072,
      "past": 3073,
      "palm": 3074,
      "qpr": 3075,
      "rag": 3076,
      "sn": 3077,
      "sv": 3078,
      "size": 3079,
      "source": 3080,
      "tm": 3081,
      "vm": 3082,
      "vend": 3083,
      "vene": 3084,
      "wal": 3085,
      "zinc": 3086,
      "##uments": 3087,
      "##sk": 3088,
      "##sopen": 3089,
      "##ij": 3090,
      "##ipped": 3091,
      "##di": 3092,
      "##dle": 3093,
      "##cs": 3094,
      "##cel": 3095,
      "##cast": 3096,
      "##oft": 3097,
      "##ner": 3098,
      "##nen": 3099,
      "##vest": 3100,
      "##ler": 3101,
      "##losed": 3102,
      "##ya": 3103,
      "##5m": 3104,
      "##gl": 3105,
      "##ger": 3106,
      "##xic": 3107,
      "##wov": 3108,
      "##wood": 3109,
      "##oni": 3110,
      "##ane": 3111,
      "##ena": 3112,
      "##road": 3113,
      "##iles": 3114,
      "##omet": 3115,
      "comes": 3116,
      "comment": 3117,
      "finance": 3118,
      "stones": 3119,
      "##emi": 3120,
      "##unities": 3121,
      "##ivi": 3122,
      "##ivid": 3123,
      "##irmed": 3124,
      "shall": 3125,
      "##raft": 3126,
      "##iesel": 3127,
      "plus": 3128,
      "could": 3129,
      "contact": 3130,
      "contribut": 3131,
      "char": 3132,
      "##aving": 3133,
      "help": 3134,
      "##soft": 3135,
      "indep": 3136,
      "abp": 3137,
      "##akh": 3138,
      "invested": 3139,
      "norm": 3140,
      "spec": 3141,
      "spok": 3142,
      "sysopen": 3143,
      "output": 3144,
      "supports": 3145,
      "providers": 3146,
      "money": 3147,
      "point": 3148,
      "metro": 3149,
      "##ikivi": 3150,
      "valued": 3151,
      "allows": 3152,
      "##eover": 3153,
      "scandinav": 3154,
      "eur10": 3155,
      "eur12": 3156,
      "medical": 3157,
      "continues": 3158,
      "##isclosed": 3159,
      "250": 3160,
      "usd1": 3161,
      "laid": 3162,
      "training": 3163,
      "track": 3164,
      "carry": 3165,
      "leader": 3166,
      "section": 3167,
      "models": 3168,
      "turned": 3169,
      "flights": 3170,
      "subsidiaries": 3171,
      "talks": 3172,
      "##spect": 3173,
      "nonwov": 3174,
      "buyer": 3175,
      "cuts": 3176,
      "demon": 3177,
      "miner": 3178,
      "goal": 3179,
      "payment": 3180,
      "tehta": 3181,
      "matti": 3182,
      "kyro": 3183,
      "subject": 3184,
      "field": 3185,
      "##plan": 3186,
      "founded": 3187,
      "opened": 3188,
      "segments": 3189,
      "commitment": 3190,
      "accessories": 3191,
      "implementation": 3192,
      "smaller": 3193,
      "nearly": 3194,
      "required": 3195,
      "consultancy": 3196,
      "ebitda": 3197,
      "calc": 3198,
      "##board": 3199,
      "forecast": 3200,
      "turku": 3201,
      "innovative": 3202,
      "court": 3203,
      "integrated": 3204,
      "##banken": 3205,
      "ilkka": 3206,
      "nnnen": 3207,
      "satama": 3208,
      "vessel": 3209,
      "vessels": 3210,
      "upgrad": 3211,
      "upgrade": 3212,
      "premises": 3213,
      "hyd": 3214,
      "housing": 3215,
      "synd": 3216,
      "arrangements": 3217,
      "honkar": 3218,
      "radio": 3219,
      "balance": 3220,
      "successful": 3221,
      "microsoft": 3222,
      "tulikivi": 3223,
      "speed": 3224,
      "motor": 3225,
      "seven": 3226,
      "##akenne": 3227,
      "appointed": 3228,
      "ratio": 3229,
      "undisclosed": 3230,
      "kazakh": 3231,
      "fleet": 3232,
      "jumped": 3233,
      "slipped": 3234,
      "committee": 3235,
      "danish": 3236,
      "municipal": 3237,
      "vmc": 3238,
      "stonesoft": 3239,
      "independ": 3240,
      "nonwovens": 3241,
      "tehtaat": 3242,
      "honkarakenne": 3243,
      "84": 3244,
      "96": 3245,
      "95": 3246,
      "bav": 3247,
      "becom": 3248,
      "bench": 3249,
      "cam": 3250,
      "dur": 3251,
      "eet": 3252,
      "fro": 3253,
      "fit": 3254,
      "fron": 3255,
      "farm": 3256,
      "gard": 3257,
      "her": 3258,
      "hum": 3259,
      "iv": 3260,
      "iron": 3261,
      "kd": 3262,
      "ke": 3263,
      "kc": 3264,
      "kong": 3265,
      "land": 3266,
      "late": 3267,
      "link": 3268,
      "mh": 3269,
      "m2": 3270,
      "n7": 3271,
      "occ": 3272,
      "pi": 3273,
      "rene": 3274,
      "role": 3275,
      "slo": 3276,
      "ter": 3277,
      "ver": 3278,
      "vir": 3279,
      "vari": 3280,
      "wip": 3281,
      "##ten": 3282,
      "##ih": 3283,
      "##iit": 3284,
      "##ients": 3285,
      "##iences": 3286,
      "##iemi": 3287,
      "##eign": 3288,
      "##r1v": 3289,
      "##fi": 3290,
      "##fa": 3291,
      "##cor": 3292,
      "##cal": 3293,
      "##curement": 3294,
      "##aim": 3295,
      "##vill": 3296,
      "##ba": 3297,
      "##bn": 3298,
      "##bv": 3299,
      "##lin": 3300,
      "##lus": 3301,
      "##lish": 3302,
      "##lies": 3303,
      "##yal": 3304,
      "##pos": 3305,
      "##pond": 3306,
      "##hensive": 3307,
      "##gar": 3308,
      "##gium": 3309,
      "thus": 3310,
      "thanks": 3311,
      "##ins": 3312,
      "inf": 3313,
      "##ori": 3314,
      "##oration": 3315,
      "##aring": 3316,
      "##ison": 3317,
      "##isions": 3318,
      "##ctions": 3319,
      "##icing": 3320,
      "##icip": 3321,
      "##elf": 3322,
      "##ether": 3323,
      "##ention": 3324,
      "##rehensive": 3325,
      "procurement": 3326,
      "comprehensive": 3327,
      "foreign": 3328,
      "2001": 3329,
      "##utis": 3330,
      "find": 3331,
      "stations": 3332,
      "##emark": 3333,
      "concept": 3334,
      "beh": 3335,
      "##usk": 3336,
      "##osure": 3337,
      "##ada": 3338,
      "exel": 3339,
      "perman": 3340,
      "##ime": 3341,
      "##ode": 3342,
      "##ots": 3343,
      "##raph": 3344,
      "marine": 3345,
      "enh": 3346,
      "mac": 3347,
      "plast": 3348,
      "gross": 3349,
      "##erview": 3350,
      "##ape": 3351,
      "prior": 3352,
      "chines": 3353,
      "chosen": 3354,
      "##acy": 3355,
      "##aced": 3356,
      "uses": 3357,
      "orig": 3358,
      "##sour": 3359,
      "reserv": 3360,
      "invo": 3361,
      "trend": 3362,
      "individ": 3363,
      "expenses": 3364,
      "abroad": 3365,
      "##ogn": 3366,
      "##ograph": 3367,
      "accounts": 3368,
      "##lied": 3369,
      "recover": 3370,
      "recogn": 3371,
      "##ify": 3372,
      "mean": 3373,
      "means": 3374,
      "mexic": 3375,
      "lease": 3376,
      "telko": 3377,
      "reloc": 3378,
      "relations": 3379,
      "##ensing": 3380,
      "mobility": 3381,
      "120": 3382,
      "##izations": 3383,
      "ended": 3384,
      "140": 3385,
      "repe": 3386,
      "engines": 3387,
      "times": 3388,
      "currency": 3389,
      "positions": 3390,
      "##teplan": 3391,
      "reduced": 3392,
      "installed": 3393,
      "##issan": 3394,
      "##issions": 3395,
      "latin": 3396,
      "grad": 3397,
      "grimal": 3398,
      "extended": 3399,
      "remained": 3400,
      "deploy": 3401,
      "aimed": 3402,
      "layoff": 3403,
      "controls": 3404,
      "polic": 3405,
      "trademark": 3406,
      "belgium": 3407,
      "forestry": 3408,
      "interested": 3409,
      "regional": 3410,
      "sanomat": 3411,
      "rapid": 3412,
      "takeover": 3413,
      "block": 3414,
      "black": 3415,
      "effective": 3416,
      "functions": 3417,
      "organizations": 3418,
      "players": 3419,
      "anticip": 3420,
      "enabling": 3421,
      "color": 3422,
      "authorities": 3423,
      "require": 3424,
      "advanced": 3425,
      "publisher": 3426,
      "austral": 3427,
      "likely": 3428,
      "course": 3429,
      "official": 3430,
      "considerably": 3431,
      "divestment": 3432,
      "certain": 3433,
      "institutions": 3434,
      "guid": 3435,
      "involved": 3436,
      "figure": 3437,
      "hotel": 3438,
      "ferry": 3439,
      "limited": 3440,
      "paints": 3441,
      "review": 3442,
      "proposal": 3443,
      "diagn": 3444,
      "juha": 3445,
      "letter": 3446,
      "popular": 3447,
      "kroons": 3448,
      "oriola": 3449,
      "aluminium": 3450,
      "etteplan": 3451,
      "wholesale": 3452,
      "pekka": 3453,
      "##market": 3454,
      "overview": 3455,
      "veneer": 3456,
      "spokes": 3457,
      "kazakhstan": 3458,
      "independent": 3459,
      "garden": 3460,
      "renew": 3461,
      "permanent": 3462,
      "chinese": 3463,
      "individual": 3464,
      "grimaldi": 3465,
      "05": 3466,
      "69": 3467,
      "83": 3468,
      "93": 3469,
      "98": 3470,
      "92": 3471,
      "aker": 3472,
      "bln": 3473,
      "billing": 3474,
      "card": 3475,
      "camp": 3476,
      "e6": 3477,
      "eest": 3478,
      "fts": 3479,
      "fast": 3480,
      "fib": 3481,
      "gmb": 3482,
      "gold": 3483,
      "hom": 3484,
      "hall": 3485,
      "hann": 3486,
      "kalm": 3487,
      "lu": 3488,
      "ls": 3489,
      "lass": 3490,
      "lind": 3491,
      "master": 3492,
      "nl": 3493,
      "pm": 3494,
      "pil": 3495,
      "pear": 3496,
      "pac": 3497,
      "riv": 3498,
      "rating": 3499,
      "roman": 3500,
      "surg": 3501,
      "ssh": 3502,
      "tro": 3503,
      "tail": 3504,
      "tires": 3505,
      "vo": 3506,
      "want": 3507,
      "york": 3508,
      "##tin": 3509,
      "##si": 3510,
      "##equ": 3511,
      "##6m": 3512,
      "##aug": 3513,
      "##ox": 3514,
      "##vs": 3515,
      "##vo": 3516,
      "##bl": 3517,
      "##ms": 3518,
      "##mill": 3519,
      "##hu": 3520,
      "##ham": 3521,
      "##king": 3522,
      "##ging": 3523,
      "##ground": 3524,
      "##10": 3525,
      "##1m": 3526,
      "##wire": 3527,
      "##eration": 3528,
      "##ored": 3529,
      "##enn": 3530,
      "##ath": 3531,
      "took": 3532,
      "towards": 3533,
      "##urb": 3534,
      "##urch": 3535,
      "##itt": 3536,
      "##ash": 3537,
      "##isf": 3538,
      "##isory": 3539,
      "##ele": 3540,
      "##ett": 3541,
      "##entric": 3542,
      "coming": 3543,
      "comments": 3544,
      "eur8": 3545,
      "eur20": 3546,
      "##eme": 3547,
      "##ulated": 3548,
      "excess": 3549,
      "examp": 3550,
      "neomark": 3551,
      "##ppi": 3552,
      "##otree": 3553,
      "##raine": 3554,
      "white": 3555,
      "plumb": 3556,
      "profiles": 3557,
      "coated": 3558,
      "coast": 3559,
      "orange": 3560,
      "##ips": 3561,
      "##isto": 3562,
      "##antial": 3563,
      "resol": 3564,
      "sees": 3565,
      "offsh": 3566,
      "##akes": 3567,
      "##rian": 3568,
      "recr": 3569,
      "interf": 3570,
      "symb": 3571,
      "outstanding": 3572,
      "outsour": 3573,
      "develops": 3574,
      "intent": 3575,
      "supplies": 3576,
      "stocks": 3577,
      "prepar": 3578,
      "swit": 3579,
      "swung": 3580,
      "centre": 3581,
      "correspond": 3582,
      "address": 3583,
      "equipped": 3584,
      "clar": 3585,
      "closing": 3586,
      "scre": 3587,
      "networking": 3588,
      "underground": 3589,
      "active": 3590,
      "registration": 3591,
      "sami": 3592,
      "repl": 3593,
      "repurch": 3594,
      "larger": 3595,
      "##lets": 3596,
      "130": 3597,
      "assign": 3598,
      "annually": 3599,
      "loans": 3600,
      "##hty": 3601,
      "optim": 3602,
      "redund": 3603,
      "##armo": 3604,
      "instr": 3605,
      "distributor": 3606,
      "grant": 3607,
      "purs": 3608,
      "##gress": 3609,
      "extension": 3610,
      "green": 3611,
      "great": 3612,
      "##cont": 3613,
      "depos": 3614,
      "foods": 3615,
      "expanded": 3616,
      "format": 3617,
      "scheme": 3618,
      "goog": 3619,
      "patients": 3620,
      "focusing": 3621,
      "days": 3622,
      "traded": 3623,
      "litres": 3624,
      "interesting": 3625,
      "headquarters": 3626,
      "votes": 3627,
      "ukraine": 3628,
      "refining": 3629,
      "reflect": 3630,
      "emissions": 3631,
      "taking": 3632,
      "middle": 3633,
      "quick": 3634,
      "##place": 3635,
      "printed": 3636,
      "opening": 3637,
      "event": 3638,
      "##iveness": 3639,
      "strengthening": 3640,
      "colle": 3641,
      "##ycle": 3642,
      "authority": 3643,
      "multip": 3644,
      "webcast": 3645,
      "tests": 3646,
      "comprising": 3647,
      "apart": 3648,
      "licensing": 3649,
      "superv": 3650,
      "looking": 3651,
      "turkey": 3652,
      "austria": 3653,
      "integration": 3654,
      "tecnotree": 3655,
      "lithuanian": 3656,
      "divested": 3657,
      "houses": 3658,
      "text": 3659,
      "connectivity": 3660,
      "figures": 3661,
      "##joki": 3662,
      "confirmed": 3663,
      "favour": 3664,
      "functional": 3665,
      "recommendation": 3666,
      "bott": 3667,
      "dutch": 3668,
      "railway": 3669,
      "welcome": 3670,
      "smartphone": 3671,
      "mechanical": 3672,
      "furniture": 3673,
      "games": 3674,
      "utility": 3675,
      "friend": 3676,
      "korea": 3677,
      "british": 3678,
      "concluded": 3679,
      "substantial": 3680,
      "geosentric": 3681,
      "llc": 3682,
      "plywood": 3683,
      "normal": 3684,
      "upgraded": 3685,
      "benchmark": 3686,
      "front": 3687,
      "wipes": 3688,
      "mexico": 3689,
      "layoffs": 3690,
      "australia": 3691,
      "diagnost": 3692,
      "eesti": 3693,
      "ftse": 3694,
      "gmbh": 3695,
      "kalmar": 3696,
      "surged": 3697,
      "example": 3698,
      "neomarkka": 3699,
      "plumbing": 3700,
      "offshore": 3701,
      "78": 3702,
      "bur": 3703,
      "cy": 3704,
      "civ": 3705,
      "cities": 3706,
      "cfo": 3707,
      "code": 3708,
      "dy": 3709,
      "ded": 3710,
      "dra": 3711,
      "dok": 3712,
      "e7": 3713,
      "eek": 3714,
      "hear": 3715,
      "ham": 3716,
      "host": 3717,
      "hung": 3718,
      "having": 3719,
      "ii": 3720,
      "ice": 3721,
      "jp": 3722,
      "jarmo": 3723,
      "kit": 3724,
      "kall": 3725,
      "kari": 3726,
      "kind": 3727,
      "lear": 3728,
      "lte": 3729,
      "mil": 3730,
      "mol": 3731,
      "mad": 3732,
      "mine": 3733,
      "mall": 3734,
      "nast": 3735,
      "nuc": 3736,
      "push": 3737,
      "q2": 3738,
      "roll": 3739,
      "rtr": 3740,
      "sun": 3741,
      "send": 3742,
      "siz": 3743,
      "srv": 3744,
      "tu": 3745,
      "wid": 3746,
      "wants": 3747,
      "western": 3748,
      "yet": 3749,
      "zone": 3750,
      "##uil": 3751,
      "##sm": 3752,
      "##sch": 3753,
      "##sung": 3754,
      "##eal": 3755,
      "##ead": 3756,
      "##ego": 3757,
      "##fers": 3758,
      "##cd": 3759,
      "##care": 3760,
      "##af": 3761,
      "##aw": 3762,
      "##aur": 3763,
      "##of": 3764,
      "##ves": 3765,
      "##br": 3766,
      "##buil": 3767,
      "##30": 3768,
      "##mi": 3769,
      "##more": 3770,
      "##yt": 3771,
      "##hib": 3772,
      "##kin": 3773,
      "##gent": 3774,
      "##9m": 3775,
      "##xes": 3776,
      "##wor": 3777,
      "##za": 3778,
      "##zh": 3779,
      "##ero": 3780,
      "ther": 3781,
      "thous": 3782,
      "##ana": 3783,
      "inaug": 3784,
      "##oring": 3785,
      "##arding": 3786,
      "##edia": 3787,
      "##enor": 3788,
      "##ening": 3789,
      "##enna": 3790,
      "##ato": 3791,
      "##ather": 3792,
      "##aliit": 3793,
      "town": 3794,
      "touch": 3795,
      "##itable": 3796,
      "##itiveness": 3797,
      "##ili": 3798,
      "##omon": 3799,
      "##omat": 3800,
      "##ication": 3801,
      "##eli": 3802,
      "##ela": 3803,
      "##stj": 3804,
      "proud": 3805,
      "proceed": 3806,
      "prospect": 3807,
      "2000": 3808,
      "##uty": 3809,
      "stated": 3810,
      "stri": 3811,
      "say": 3812,
      "##ley": 3813,
      "##lear": 3814,
      "shang": 3815,
      "##chang": 3816,
      "itself": 3817,
      "exerc": 3818,
      "##oted": 3819,
      "martel": 3820,
      "placed": 3821,
      "profess": 3822,
      "profile": 3823,
      "profitable": 3824,
      "princ": 3825,
      "pricing": 3826,
      "chann": 3827,
      "check": 3828,
      "serving": 3829,
      "##que": 3830,
      "##log": 3831,
      "groups": 3832,
      "euro1": 3833,
      "##amo": 3834,
      "##allissan": 3835,
      "truc": 3836,
      "express": 3837,
      "agric": 3838,
      "boost": 3839,
      "boats": 3840,
      "##rik": 3841,
      "solidi": 3842,
      "solteq": 3843,
      "##resh": 3844,
      "##uge": 3845,
      "heav": 3846,
      "totals": 3847,
      "##ift": 3848,
      "meur": 3849,
      "mega": 3850,
      "consist": 3851,
      "intel": 3852,
      "intends": 3853,
      "community": 3854,
      "tele": 3855,
      "manage": 3856,
      "manages": 3857,
      "##ually": 3858,
      "losses": 3859,
      "employer": 3860,
      "##ikallissan": 3861,
      "paikallissan": 3862,
      "prefer": 3863,
      "prepa": 3864,
      "delight": 3865,
      "notes": 3866,
      "noted": 3867,
      "cents": 3868,
      "soon": 3869,
      "clim": 3870,
      "claim": 3871,
      "sciss": 3872,
      "scope": 3873,
      "198": 3874,
      "eur11": 3875,
      "action": 3876,
      "regions": 3877,
      "worked": 3878,
      "samsung": 3879,
      "counter": 3880,
      "buildings": 3881,
      "256": 3882,
      "canada": 3883,
      "engaged": 3884,
      "law": 3885,
      "cars": 3886,
      "arch": 3887,
      "arena": 3888,
      "cru": 3889,
      "crit": 3890,
      "issues": 3891,
      "##ude": 3892,
      "doubl": 3893,
      "throughout": 3894,
      "branded": 3895,
      "informed": 3896,
      "kaun": 3897,
      "novel": 3898,
      "discuss": 3899,
      "telecoms": 3900,
      "##roll": 3901,
      "furthermore": 3902,
      "extra": 3903,
      "extract": 3904,
      "competitiveness": 3905,
      "lifting": 3906,
      "specialist": 3907,
      "specialising": 3908,
      "became": 3909,
      "followed": 3910,
      "expands": 3911,
      "expanding": 3912,
      "minor": 3913,
      "drinks": 3914,
      "determ": 3915,
      "securities": 3916,
      "purchases": 3917,
      "##anese": 3918,
      "programs": 3919,
      "represents": 3920,
      "therefore": 3921,
      "whereby": 3922,
      "refinery": 3923,
      "charger": 3924,
      "ems": 3925,
      "emerg": 3926,
      "subcont": 3927,
      "dividends": 3928,
      "parent": 3929,
      "representative": 3930,
      "creating": 3931,
      "quite": 3932,
      "##hai": 3933,
      "needed": 3934,
      "clean": 3935,
      "olli": 3936,
      "standards": 3937,
      "client": 3938,
      "attract": 3939,
      "multi": 3940,
      "surve": 3941,
      "connection": 3942,
      "geograph": 3943,
      "comprise": 3944,
      "comprises": 3945,
      "drop": 3946,
      "japanese": 3947,
      "dispos": 3948,
      "tender": 3949,
      "participants": 3950,
      "windows": 3951,
      "protection": 3952,
      "convert": 3953,
      "bonds": 3954,
      "morning": 3955,
      "clearly": 3956,
      "contains": 3957,
      "synerg": 3958,
      "newspapers": 3959,
      "shops": 3960,
      "readers": 3961,
      "escal": 3962,
      "favor": 3963,
      "grain": 3964,
      "hook": 3965,
      "primarily": 3966,
      "single": 3967,
      "sawmill": 3968,
      "frequ": 3969,
      "named": 3970,
      "pipett": 3971,
      "university": 3972,
      "healthcare": 3973,
      "recycling": 3974,
      "vehicle": 3975,
      "vehicles": 3976,
      "malays": 3977,
      "metsaliit": 3978,
      "laboratory": 3979,
      "achieve": 3980,
      "dollars": 3981,
      "history": 3982,
      "conducted": 3983,
      "happy": 3984,
      "opportunities": 3985,
      "category": 3986,
      "federal": 3987,
      "messaging": 3988,
      "nomination": 3989,
      "object": 3990,
      "##gregor": 3991,
      "reorganisation": 3992,
      "types": 3993,
      "hardware": 3994,
      "ragutis": 3995,
      "scandinavian": 3996,
      "demonstr": 3997,
      "hydro": 3998,
      "syndicated": 3999,
      "motorola": 4000,
      "human": 4001,
      "mhz": 4002,
      "variety": 4003,
      "##lusive": 4004,
      "macgregor": 4005,
      "original": 4006,
      "invoices": 4007,
      "deployment": 4008,
      "requirements": 4009,
      "guidance": 4010,
      "homes": 4011,
      "hannu": 4012,
      "pilot": 4013,
      "pearl": 4014,
      "pacific": 4015,
      "recruit": 4016,
      "symbian": 4017,
      "##htyma": 4018,
      "granted": 4019,
      "google": 4020,
      "functionality": 4021,
      "civil": 4022,
      "nuclear": 4023,
      "rtrks": 4024,
      "thousand": 4025,
      "strike": 4026,
      "shanghai": 4027,
      "martela": 4028,
      "solidium": 4029,
      "paikallissanomat": 4030,
      "prepaid": 4031,
      "subcontract": 4032,
      "metsaliitto": 4033,
      "72": 4034,
      "away": 4035,
      "bes": 4036,
      "bag": 4037,
      "biod": 4038,
      "bak": 4039,
      "body": 4040,
      "cu": 4041,
      "cd": 4042,
      "ca": 4043,
      "cer": 4044,
      "cro": 4045,
      "cos": 4046,
      "cast": 4047,
      "der": 4048,
      "done": 4049,
      "eas": 4050,
      "ess": 4051,
      "fo": 4052,
      "fab": 4053,
      "fif": 4054,
      "fresh": 4055,
      "gi": 4056,
      "gps": 4057,
      "giving": 4058,
      "hect": 4059,
      "ic": 4060,
      "jour": 4061,
      "km": 4062,
      "led": 4063,
      "mom": 4064,
      "mich": 4065,
      "mixed": 4066,
      "n9": 4067,
      "nec": 4068,
      "oko": 4069,
      "oss": 4070,
      "pk": 4071,
      "pound": 4072,
      "pick": 4073,
      "rs": 4074,
      "rm": 4075,
      "rig": 4076,
      "rules": 4077,
      "sem": 4078,
      "sport": 4079,
      "search": 4080,
      "tas": 4081,
      "tect": 4082,
      "tab": 4083,
      "tack": 4084,
      "tlt": 4085,
      "util": 4086,
      "vat": 4087,
      "vote": 4088,
      "yards": 4089,
      "##uo": 4090,
      "##uro": 4091,
      "##tt": 4092,
      "##tle": 4093,
      "##tila": 4094,
      "##sbanken": 4095,
      "##ee": 4096,
      "##eg": 4097,
      "##60": 4098,
      "##rist": 4099,
      "##cil": 4100,
      "##apor": 4101,
      "##aign": 4102,
      "##a1v": 4103,
      "##ob": 4104,
      "##ng": 4105,
      "##vak": 4106,
      "##vuo": 4107,
      "##las": 4108,
      "##49": 4109,
      "##mely": 4110,
      "##miss": 4111,
      "##mission": 4112,
      "##yn": 4113,
      "##pol": 4114,
      "##point": 4115,
      "##hn": 4116,
      "##hing": 4117,
      "##ked": 4118,
      "##gate": 4119,
      "##xe": 4120,
      "##7m": 4121,
      "##zen": 4122,
      "##ered": 4123,
      "##inding": 4124,
      "##aneo": 4125,
      "insp": 4126,
      "##energ": 4127,
      "##room": 4128,
      "##roup": 4129,
      "##alian": 4130,
      "##alix": 4131,
      "ans": 4132,
      "tower": 4133,
      "##ury": 4134,
      "##ites": 4135,
      "##itation": 4136,
      "##asis": 4137,
      "##eled": 4138,
      "##ster": 4139,
      "##stone": 4140,
      "##remely": 4141,
      "probl": 4142,
      "compens": 4143,
      "##ides": 4144,
      "##uters": 4145,
      "##utory": 4146,
      "##utsch": 4147,
      "italian": 4148,
      "finish": 4149,
      "##olding": 4150,
      "star": 4151,
      "stra": 4152,
      "stages": 4153,
      "##emb": 4154,
      "##empt": 4155,
      "bearing": 4156,
      "##usly": 4157,
      "##tered": 4158,
      "saint": 4159,
      "saying": 4160,
      "sappi": 4161,
      "shows": 4162,
      "shale": 4163,
      "reason": 4164,
      "reuters": 4165,
      "##igence": 4166,
      "##ching": 4167,
      "##ader": 4168,
      "##essary": 4169,
      "##imo": 4170,
      "along": 4171,
      "altern": 4172,
      "suff": 4173,
      "suitable": 4174,
      "salomon": 4175,
      "##otive": 4176,
      "##otie": 4177,
      "ending": 4178,
      "enough": 4179,
      "##porters": 4180,
      "whose": 4181,
      "map": 4182,
      "magn": 4183,
      "##eva": 4184,
      "##evant": 4185,
      "coq": 4186,
      "coup": 4187,
      "##abil": 4188,
      "##abilities": 4189,
      "serves": 4190,
      "##agen": 4191,
      "unc": 4192,
      "unchang": 4193,
      "2013": 4194,
      "##elloni": 4195,
      "##istic": 4196,
      "##antage": 4197,
      "##active": 4198,
      "##alling": 4199,
      "resid": 4200,
      "##ains": 4201,
      "seal": 4202,
      "seek": 4203,
      "trip": 4204,
      "quarterly": 4205,
      "expend": 4206,
      "##akoski": 4207,
      "sole": 4208,
      "solar": 4209,
      "capabilities": 4210,
      "fired": 4211,
      "appear": 4212,
      "applied": 4213,
      "##lif": 4214,
      "deutsch": 4215,
      "heik": 4216,
      "spain": 4217,
      "outlets": 4218,
      "##ultaneo": 4219,
      "consens": 4220,
      "telenor": 4221,
      "105": 4222,
      "relevant": 4223,
      "meters": 4224,
      "signing": 4225,
      "##ikka": 4226,
      "prec": 4227,
      "elekt": 4228,
      "raah": 4229,
      "##ibr": 4230,
      "owners": 4231,
      "divisions": 4232,
      "scale": 4233,
      "nordstj": 4234,
      "regarding": 4235,
      "termin": 4236,
      "##ukka": 4237,
      "boards": 4238,
      "council": 4239,
      "dealers": 4240,
      "join": 4241,
      "peab": 4242,
      "timo": 4243,
      "train": 4244,
      "headbo": 4245,
      "storage": 4246,
      "leaders": 4247,
      "arm": 4248,
      "crane": 4249,
      "remov": 4250,
      "numbers": 4251,
      "##rought": 4252,
      "sellers": 4253,
      "kai": 4254,
      "manufactured": 4255,
      "modular": 4256,
      "longer": 4257,
      "350": 4258,
      "retailers": 4259,
      "portion": 4260,
      "extensive": 4261,
      "extremely": 4262,
      "targeted": 4263,
      "negotiating": 4264,
      "competitors": 4265,
      "deputy": 4266,
      "specialises": 4267,
      "formed": 4268,
      "drive": 4269,
      "##ledge": 4270,
      "focused": 4271,
      "airb": 4272,
      "wholly": 4273,
      "transferring": 4274,
      "purchased": 4275,
      "little": 4276,
      "status": 4277,
      "statutory": 4278,
      "savcor": 4279,
      "divided": 4280,
      "lih": 4281,
      "entit": 4282,
      "offered": 4283,
      "supporting": 4284,
      "##ernan": 4285,
      "refin": 4286,
      "charges": 4287,
      "chargers": 4288,
      "stronger": 4289,
      "email": 4290,
      "360": 4291,
      "carriers": 4292,
      "demanding": 4293,
      "created": 4294,
      "tikano": 4295,
      "##ahl": 4296,
      "developers": 4297,
      "quoted": 4298,
      "##places": 4299,
      "commercially": 4300,
      "lem1s": 4301,
      "simultaneo": 4302,
      "changed": 4303,
      "implemented": 4304,
      "implementing": 4305,
      "analyses": 4306,
      "affected": 4307,
      "responsibility": 4308,
      "handsets": 4309,
      "attach": 4310,
      "merged": 4311,
      "selection": 4312,
      "##comm": 4313,
      "##50m": 4314,
      "testing": 4315,
      "economy": 4316,
      "dismiss": 4317,
      "license": 4318,
      "supermarket": 4319,
      "participate": 4320,
      "participated": 4321,
      "tallink": 4322,
      "protalix": 4323,
      "associated": 4324,
      "skog": 4325,
      "bringing": 4326,
      "1999": 4327,
      "consideration": 4328,
      "running": 4329,
      "visibility": 4330,
      "brazilian": 4331,
      "circul": 4332,
      "biotie": 4333,
      "knowledge": 4334,
      "alandsbanken": 4335,
      "introduce": 4336,
      "introduced": 4337,
      "ferries": 4338,
      "wafer": 4339,
      "wafers": 4340,
      "initiated": 4341,
      "mika": 4342,
      "##going": 4343,
      "renov": 4344,
      "recycled": 4345,
      "document": 4346,
      "merch": 4347,
      "nrvi": 4348,
      "viewed": 4349,
      "composites": 4350,
      "showed": 4351,
      "brewery": 4352,
      "immediate": 4353,
      "immediately": 4354,
      "framework": 4355,
      "possible": 4356,
      "##while": 4357,
      "advertising": 4358,
      "hours": 4359,
      "kilomet": 4360,
      "minerals": 4361,
      "bavelloni": 4362,
      "becoming": 4363,
      "duration": 4364,
      "occup": 4365,
      "slovak": 4366,
      "territ": 4367,
      "plastic": 4368,
      "recovery": 4369,
      "meanwhile": 4370,
      "policy": 4371,
      "campaign": 4372,
      "lassila": 4373,
      "rival": 4374,
      "romania": 4375,
      "screen": 4376,
      "redundant": 4377,
      "collection": 4378,
      "textile": 4379,
      "favourable": 4380,
      "friendly": 4381,
      "hungary": 4382,
      "madison": 4383,
      "nastola": 4384,
      "professional": 4385,
      "principal": 4386,
      "agricult": 4387,
      "claims": 4388,
      "scissors": 4389,
      "cruise": 4390,
      "emerging": 4391,
      "convertible": 4392,
      "escalators": 4393,
      "malaysia": 4394,
      "objective": 4395,
      "biodiesel": 4396,
      "foot": 4397,
      "giant": 4398,
      "moment": 4399,
      "necessary": 4400,
      "pkc": 4401,
      "tectia": 4402,
      "tlt1v": 4403,
      "unchanged": 4404,
      "consensus": 4405,
      "elektro": 4406,
      "raahe": 4407,
      "nordstjernan": 4408,
      "tikanoja": 4409,
      "simultaneously": 4410,
      "750": 4411,
      "ara": 4412,
      "aven": 4413,
      "bir": 4414,
      "band": 4415,
      "bri": 4416,
      "bang": 4417,
      "brought": 4418,
      "cn": 4419,
      "cat": 4420,
      "cth": 4421,
      "cart": 4422,
      "cult": 4423,
      "cola": 4424,
      "cards": 4425,
      "dc": 4426,
      "din": 4427,
      "don": 4428,
      "dong": 4429,
      "dub": 4430,
      "disa": 4431,
      "eg": 4432,
      "eq": 4433,
      "eat": 4434,
      "eero": 4435,
      "fat": 4436,
      "file": 4437,
      "face": 4438,
      "faster": 4439,
      "got": 4440,
      "h1": 4441,
      "hen": 4442,
      "hop": 4443,
      "huge": 4444,
      "ip": 4445,
      "ict": 4446,
      "jar": 4447,
      "juss": 4448,
      "jukka": 4449,
      "ku": 4450,
      "kir": 4451,
      "kos": 4452,
      "kuit": 4453,
      "lg": 4454,
      "lot": 4455,
      "lang": 4456,
      "length": 4457,
      "lng": 4458,
      "libr": 4459,
      "mand": 4460,
      "mort": 4461,
      "n8": 4462,
      "nation": 4463,
      "nda": 4464,
      "ow": 4465,
      "oth": 4466,
      "obs": 4467,
      "pv": 4468,
      "pir": 4469,
      "pow": 4470,
      "pell": 4471,
      "rent": 4472,
      "rang": 4473,
      "risk": 4474,
      "ratings": 4475,
      "rosen": 4476,
      "risto": 4477,
      "sand": 4478,
      "sla": 4479,
      "tank": 4480,
      "vu": 4481,
      "vr": 4482,
      "wet": 4483,
      "wall": 4484,
      "watch": 4485,
      "writ": 4486,
      "wcd": 4487,
      "yhtyma": 4488,
      "##ule": 4489,
      "##table": 4490,
      "##town": 4491,
      "##sc": 4492,
      "##do": 4493,
      "##ein": 4494,
      "##eas": 4495,
      "##eum": 4496,
      "##eap": 4497,
      "##ret": 4498,
      "##rup": 4499,
      "##rcl": 4500,
      "##fors": 4501,
      "##craft": 4502,
      "##ao": 4503,
      "##aari": 4504,
      "##night": 4505,
      "##var": 4506,
      "##bon": 4507,
      "##bit": 4508,
      "##ball": 4509,
      "##bby": 4510,
      "##ls": 4511,
      "##lan": 4512,
      "##lining": 4513,
      "##40": 4514,
      "##3m": 4515,
      "##32": 4516,
      "##ming": 4517,
      "##mas": 4518,
      "##m1v": 4519,
      "##minen": 4520,
      "##pi": 4521,
      "##page": 4522,
      "##kk": 4523,
      "##kov": 4524,
      "##kinen": 4525,
      "##g1v": 4526,
      "##guan": 4527,
      "##will": 4528,
      "##wise": 4529,
      "##ze": 4530,
      "##erce": 4531,
      "##inct": 4532,
      "##inical": 4533,
      "thes": 4534,
      "##ona": 4535,
      "##ontin": 4536,
      "##orn": 4537,
      "##arp": 4538,
      "##aria": 4539,
      "##eni": 4540,
      "##enh": 4541,
      "##ature": 4542,
      "##atively": 4543,
      "animal": 4544,
      "tough": 4545,
      "##urt": 4546,
      "##iter": 4547,
      "##itan": 4548,
      "##iting": 4549,
      "##iling": 4550,
      "##isu": 4551,
      "##isen": 4552,
      "##icate": 4553,
      "##icult": 4554,
      "##eling": 4555,
      "##eland": 4556,
      "##elds": 4557,
      "##star": 4558,
      "##stex": 4559,
      "##repr": 4560,
      "proport": 4561,
      "proced": 4562,
      "proha": 4563,
      "complement": 4564,
      "force": 4565,
      "forss": 4566,
      "##ece": 4567,
      "##olving": 4568,
      "stop": 4569,
      "stage": 4570,
      "stakes": 4571,
      "once": 4572,
      "ongoing": 4573,
      "##una": 4574,
      "##unn": 4575,
      "##unta": 4576,
      "##uneration": 4577,
      "sach": 4578,
      "safr": 4579,
      "##anda": 4580,
      "shb": 4581,
      "asa": 4582,
      "reporters": 4583,
      "##igroup": 4584,
      "##ulf": 4585,
      "##ull": 4586,
      "##chem": 4587,
      "##estone": 4588,
      "##ades": 4589,
      "exceed": 4590,
      "##uction": 4591,
      "##ppl": 4592,
      "suite": 4593,
      "salari": 4594,
      "marit": 4595,
      "marub": 4596,
      "marcel": 4597,
      "margar": 4598,
      "max": 4599,
      "plate": 4600,
      "places": 4601,
      "##ocol": 4602,
      "washing": 4603,
      "newly": 4604,
      "newstex": 4605,
      "cho": 4606,
      "cham": 4607,
      "christ": 4608,
      "server": 4609,
      "##ago": 4610,
      "unnam": 4611,
      "##bercom": 4612,
      "##eller": 4613,
      "##ista": 4614,
      "##istry": 4615,
      "##aining": 4616,
      "try": 4617,
      "trust": 4618,
      "trial": 4619,
      "adop": 4620,
      "moving": 4621,
      "abb": 4622,
      "##ogether": 4623,
      "totalling": 4624,
      "solid": 4625,
      "capability": 4626,
      "increases": 4627,
      "apple": 4628,
      "apply": 4629,
      "weather": 4630,
      "bud": 4631,
      "investig": 4632,
      "nors": 4633,
      "##liers": 4634,
      "partly": 4635,
      "##itional": 4636,
      "spons": 4637,
      "meego": 4638,
      "provision": 4639,
      "##ultry": 4640,
      "consid": 4641,
      "suppliers": 4642,
      "leased": 4643,
      "102": 4644,
      "##endar": 4645,
      "monitor": 4646,
      "relative": 4647,
      "reliab": 4648,
      "relatively": 4649,
      "##ological": 4650,
      "builds": 4651,
      "##force": 4652,
      "poor": 4653,
      "poultry": 4654,
      "expectations": 4655,
      "note": 4656,
      "centres": 4657,
      "otherwise": 4658,
      "##ibly": 4659,
      "##ibody": 4660,
      "##ughter": 4661,
      "adds": 4662,
      "clinical": 4663,
      "divers": 4664,
      "##izing": 4665,
      "194": 4666,
      "eur16": 4667,
      "30mn": 4668,
      "understanding": 4669,
      "underlying": 4670,
      "highest": 4671,
      "highly": 4672,
      "medium": 4673,
      "##acks": 4674,
      "##ackers": 4675,
      "afterno": 4676,
      "25mn": 4677,
      "##encing": 4678,
      "##encies": 4679,
      "internal": 4680,
      "133": 4681,
      "john": 4682,
      "holiday": 4683,
      "realized": 4684,
      "assum": 4685,
      "arts": 4686,
      "160": 4687,
      "lost": 4688,
      "loude": 4689,
      "frank": 4690,
      "remuneration": 4691,
      "step": 4692,
      "sells": 4693,
      "170": 4694,
      "##elsen": 4695,
      "novator": 4696,
      "flat": 4697,
      "flag": 4698,
      "smok": 4699,
      "distribute": 4700,
      "distributed": 4701,
      "fulf": 4702,
      "discontin": 4703,
      "shareholding": 4704,
      "grid": 4705,
      "aviation": 4706,
      "buying": 4707,
      "remainder": 4708,
      "targeting": 4709,
      "competence": 4710,
      "lifted": 4711,
      "ministry": 4712,
      "drug": 4713,
      "drink": 4714,
      "peter": 4715,
      "goodwill": 4716,
      "payroll": 4717,
      "secured": 4718,
      "aircraft": 4719,
      "##phones": 4720,
      "room": 4721,
      "royal": 4722,
      "roof": 4723,
      "pharmac": 4724,
      "litas": 4725,
      "entrepr": 4726,
      "matching": 4727,
      "excell": 4728,
      "cooperative": 4729,
      "strengthens": 4730,
      "combining": 4731,
      "combination": 4732,
      "imports": 4733,
      "##ertain": 4734,
      "wonder": 4735,
      "takes": 4736,
      "produces": 4737,
      "producers": 4738,
      "represented": 4739,
      "difficult": 4740,
      "covering": 4741,
      "automotive": 4742,
      "factors": 4743,
      "experiences": 4744,
      "fields": 4745,
      "funding": 4746,
      "jointly": 4747,
      "foundation": 4748,
      "idea": 4749,
      "veget": 4750,
      "version": 4751,
      "versions": 4752,
      "simp": 4753,
      "committed": 4754,
      "##ourcing": 4755,
      "warr": 4756,
      "summary": 4757,
      "antibody": 4758,
      "strengthened": 4759,
      "collect": 4760,
      "standing": 4761,
      "subscribers": 4762,
      "select": 4763,
      "advisory": 4764,
      "advantage": 4765,
      "publishing": 4766,
      "fuj": 4767,
      "wooden": 4768,
      "apartment": 4769,
      "tamgl": 4770,
      "magazines": 4771,
      "470": 4772,
      "calif": 4773,
      "calendar": 4774,
      "licences": 4775,
      "##tiles": 4776,
      "returned": 4777,
      "benefits": 4778,
      "window": 4779,
      "convergent": 4780,
      "morvill": 4781,
      "1998": 4782,
      "please": 4783,
      "altimo": 4784,
      "altogether": 4785,
      "succeed": 4786,
      "premium": 4787,
      "certified": 4788,
      "certification": 4789,
      "hybr": 4790,
      "osl": 4791,
      "texas": 4792,
      "textiles": 4793,
      "visitors": 4794,
      "institutional": 4795,
      "streamline": 4796,
      "barcl": 4797,
      "promising": 4798,
      "commissioned": 4799,
      "latvian": 4800,
      "connections": 4801,
      "adjustments": 4802,
      "weakness": 4803,
      "esl": 4804,
      "hobby": 4805,
      "##namic": 4806,
      "computers": 4807,
      "finalized": 4808,
      "copy": 4809,
      "primary": 4810,
      "invention": 4811,
      "initiatives": 4812,
      "singapor": 4813,
      "putting": 4814,
      "universities": 4815,
      "separate": 4816,
      "explained": 4817,
      "540": 4818,
      "audio": 4819,
      "botnia": 4820,
      "ireland": 4821,
      "tvs": 4822,
      "##omarkkin": 4823,
      "identity": 4824,
      "initially": 4825,
      "documents": 4826,
      "dollar": 4827,
      "histor": 4828,
      "composite": 4829,
      "stonegate": 4830,
      "seppala": 4831,
      "defense": 4832,
      "opportunity": 4833,
      "citigroup": 4834,
      "sentera": 4835,
      "intelligence": 4836,
      "kauko": 4837,
      "kaukomarkkin": 4838,
      "concentrate": 4839,
      "canceled": 4840,
      "vendor": 4841,
      "vendors": 4842,
      "contribute": 4843,
      "chartered": 4844,
      "usd12": 4845,
      "municipalities": 4846,
      "frozen": 4847,
      "keep": 4848,
      "kci": 4849,
      "##ihko": 4850,
      "enhance": 4851,
      "##apeut": 4852,
      "recognized": 4853,
      "relationship": 4854,
      "gradually": 4855,
      "anticipated": 4856,
      "officials": 4857,
      "goldman": 4858,
      "lindex": 4859,
      "interface": 4860,
      "multiple": 4861,
      "apartments": 4862,
      "diagnostic": 4863,
      "cybercom": 4864,
      "dedicated": 4865,
      "hamina": 4866,
      "jpm": 4867,
      "widened": 4868,
      "##world": 4869,
      "inaugur": 4870,
      "trucks": 4871,
      "heavy": 4872,
      "delighted": 4873,
      "doubled": 4874,
      "minority": 4875,
      "survey": 4876,
      "frequency": 4877,
      "besides": 4878,
      "ceram": 4879,
      "fifth": 4880,
      "hectares": 4881,
      "icis": 4882,
      "journ": 4883,
      "tackle": 4884,
      "compensation": 4885,
      "couple": 4886,
      "uncertain": 4887,
      "deutsche": 4888,
      "heikki": 4889,
      "dismissed": 4890,
      "agricultural": 4891,
      "elektrobit": 4892,
      "arab": 4893,
      "brief": 4894,
      "cth1v": 4895,
      "dongguan": 4896,
      "disapp": 4897,
      "jussi": 4898,
      "observ": 4899,
      "pvt": 4900,
      "powder": 4901,
      "slaughter": 4902,
      "wcdma": 4903,
      "proportion": 4904,
      "sachs": 4905,
      "safran": 4906,
      "salaried": 4907,
      "marubeni": 4908,
      "unnamed": 4909,
      "afternoon": 4910,
      "loudeac": 4911,
      "tamglass": 4912,
      "morvillars": 4913,
      "hybrid": 4914,
      "barclays": 4915,
      "singapore": 4916,
      "kaukomarkkinat": 4917,
      "4g": 4918,
      "8mn": 4919,
      "aw": 4920,
      "amp": 4921,
      "bp": 4922,
      "bg": 4923,
      "bed": 4924,
      "ben": 4925,
      "bun": 4926,
      "bim": 4927,
      "bab": 4928,
      "ball": 4929,
      "bah": 4930,
      "cs": 4931,
      "cur": 4932,
      "cel": 4933,
      "cid": 4934,
      "cad": 4935,
      "cab": 4936,
      "caus": 4937,
      "cause": 4938,
      "cvs": 4939,
      "dj": 4940,
      "dam": 4941,
      "dry": 4942,
      "diesel": 4943,
      "ec": 4944,
      "ey": 4945,
      "eth": 4946,
      "eila": 4947,
      "eco": 4948,
      "fis": 4949,
      "fail": 4950,
      "gal": 4951,
      "gall": 4952,
      "gift": 4953,
      "gulf": 4954,
      "hi": 4955,
      "hans": 4956,
      "holl": 4957,
      "hsp": 4958,
      "hiab": 4959,
      "hope": 4960,
      "ib": 4961,
      "iphone": 4962,
      "jv": 4963,
      "jon": 4964,
      "jud": 4965,
      "jones": 4966,
      "ko": 4967,
      "kol": 4968,
      "kim": 4969,
      "kap": 4970,
      "kron": 4971,
      "kost": 4972,
      "kraft": 4973,
      "lv": 4974,
      "lid": 4975,
      "los": 4976,
      "lund": 4977,
      "lending": 4978,
      "links": 4979,
      "ms": 4980,
      "mir": 4981,
      "must": 4982,
      "mmo": 4983,
      "nich": 4984,
      "nik": 4985,
      "ot": 4986,
      "od": 4987,
      "ox": 4988,
      "ost": 4989,
      "overs": 4990,
      "obt": 4991,
      "ps": 4992,
      "pal": 4993,
      "pion": 4994,
      "pit": 4995,
      "pent": 4996,
      "pap": 4997,
      "pages": 4998,
      "rf": 4999,
      "rh": 5000,
      "rut": 5001,
      "ros": 5002,
      "rim": 5003,
      "rts": 5004,
      "rant": 5005,
      "round": 5006,
      "risf": 5007,
      "rihko": 5008,
      "sar": 5009,
      "sus": 5010,
      "sver": 5011,
      "sound": 5012,
      "sources": 5013,
      "sourcing": 5014,
      "tg": 5015,
      "tj": 5016,
      "tan": 5017,
      "tub": 5018,
      "tai": 5019,
      "tips": 5020,
      "ult": 5021,
      "van": 5022,
      "vas": 5023,
      "vod": 5024,
      "wat": 5025,
      "wro": 5026,
      "warm": 5027,
      "wahl": 5028,
      "##uay": 5029,
      "##uated": 5030,
      "##tas": 5031,
      "##tics": 5032,
      "##ias": 5033,
      "##i1v": 5034,
      "##ield": 5035,
      "##eer": 5036,
      "##rd": 5037,
      "##rva": 5038,
      "##fu": 5039,
      "##fl": 5040,
      "##fon": 5041,
      "##cing": 5042,
      "##crib": 5043,
      "##ae": 5044,
      "##ament": 5045,
      "##ni": 5046,
      "##ny": 5047,
      "##nap": 5048,
      "##vinen": 5049,
      "##vester": 5050,
      "##view": 5051,
      "##ban": 5052,
      "##bed": 5053,
      "##bro": 5054,
      "##lit": 5055,
      "##lem": 5056,
      "##lly": 5057,
      "##4m": 5058,
      "##mit": 5059,
      "##mak": 5060,
      "##pro": 5061,
      "##prom": 5062,
      "##pect": 5063,
      "##pass": 5064,
      "##halt": 5065,
      "##ku": 5066,
      "##kn": 5067,
      "##kil": 5068,
      "##kki": 5069,
      "##key": 5070,
      "##koski": 5071,
      "##gu": 5072,
      "##24": 5073,
      "##27": 5074,
      "##90": 5075,
      "##73": 5076,
      "##7mn": 5077,
      "##1a": 5078,
      "##11": 5079,
      "##wr": 5080,
      "##wan": 5081,
      "##woman": 5082,
      "##western": 5083,
      "##zi": 5084,
      "##zer": 5085,
      "##zan": 5086,
      "##jan": 5087,
      "##ony": 5088,
      "##anium": 5089,
      "##orf": 5090,
      "##orm": 5091,
      "##orand": 5092,
      "##orrow": 5093,
      "##enburg": 5094,
      "##atu": 5095,
      "##atically": 5096,
      "##roos": 5097,
      "##aling": 5098,
      "##alki": 5099,
      "##alore": 5100,
      "##urin": 5101,
      "##urity": 5102,
      "##iled": 5103,
      "##omer": 5104,
      "##asons": 5105,
      "##asvuo": 5106,
      "##ets": 5107,
      "##etary": 5108,
      "##etnam": 5109,
      "##enth": 5110,
      "##ently": 5111,
      "comfor": 5112,
      "20mn": 5113,
      "pros": 5114,
      "progress": 5115,
      "compat": 5116,
      "forced": 5117,
      "forma": 5118,
      "2002": 5119,
      "##ecycle": 5120,
      "##ution": 5121,
      "##utions": 5122,
      "sty": 5123,
      "stay": 5124,
      "stabil": 5125,
      "##emed": 5126,
      "const": 5127,
      "##unction": 5128,
      "beers": 5129,
      "beij": 5130,
      "sab": 5131,
      "saar": 5132,
      "save": 5133,
      "##iring": 5134,
      "##ishing": 5135,
      "shif": 5136,
      "shipment": 5137,
      "shape": 5138,
      "sharp": 5139,
      "shalki": 5140,
      "asked": 5141,
      "##osp": 5142,
      "##osph": 5143,
      "##theless": 5144,
      "rein": 5145,
      "rebuil": 5146,
      "reasons": 5147,
      "##ige": 5148,
      "##ulose": 5149,
      "##advill": 5150,
      "##ession": 5151,
      "##mental": 5152,
      "never": 5153,
      "nevs": 5154,
      "##ppinen": 5155,
      "##imedia": 5156,
      "operative": 5157,
      "alus": 5158,
      "alfa": 5159,
      "salo": 5160,
      "salary": 5161,
      "sal1v": 5162,
      "atom": 5163,
      "##oting": 5164,
      "why": 5165,
      "whether": 5166,
      "maps": 5167,
      "pla": 5168,
      "plot": 5169,
      "##evi": 5170,
      "grown": 5171,
      "profits": 5172,
      "##tsil": 5173,
      "coating": 5174,
      "##apter": 5175,
      "##apstone": 5176,
      "##abs": 5177,
      "newpage": 5178,
      "chic": 5179,
      "chenna": 5180,
      "unve": 5181,
      "##ava": 5182,
      "##acement": 5183,
      "orna": 5184,
      "##load": 5185,
      "productivity": 5186,
      "eurochem": 5187,
      "##ipurin": 5188,
      "##elling": 5189,
      "##ams": 5190,
      "##iste": 5191,
      "##actors": 5192,
      "resign": 5193,
      "##ainment": 5194,
      "invite": 5195,
      "seat": 5196,
      "seas": 5197,
      "adequ": 5198,
      "quarters": 5199,
      "indicated": 5200,
      "explo": 5201,
      "mov": 5202,
      "moved": 5203,
      "agency": 5204,
      "aggreg": 5205,
      "##ogen": 5206,
      "capt": 5207,
      "decline": 5208,
      "decoration": 5209,
      "##angas": 5210,
      "##liance": 5211,
      "##uguay": 5212,
      "party": 5213,
      "amend": 5214,
      "amanda": 5215,
      "spin": 5216,
      "span": 5217,
      "spre": 5218,
      "spot": 5219,
      "split": 5220,
      "##ifying": 5221,
      "meadvill": 5222,
      "interior": 5223,
      "interactive": 5224,
      "outdo": 5225,
      "contracted": 5226,
      "contracting": 5227,
      "intended": 5228,
      "common": 5229,
      "commerce": 5230,
      "lee": 5231,
      "leg": 5232,
      "leave": 5233,
      "leasing": 5234,
      "leipurin": 5235,
      "telem": 5236,
      "103": 5237,
      "financed": 5238,
      "industri": 5239,
      "brings": 5240,
      "technological": 5241,
      "customised": 5242,
      "phases": 5243,
      "phosph": 5244,
      "employed": 5245,
      "employing": 5246,
      "metre": 5247,
      "transports": 5248,
      "transmission": 5249,
      "##wns": 5250,
      "valid": 5251,
      "values": 5252,
      "percentage": 5253,
      "alloc": 5254,
      "soapstone": 5255,
      "fees": 5256,
      "feas": 5257,
      "##icsson": 5258,
      "152": 5259,
      "monthly": 5260,
      "elected": 5261,
      "click": 5262,
      "closure": 5263,
      "scot": 5264,
      "##izer": 5265,
      "##izon": 5266,
      "196": 5267,
      "twig": 5268,
      "directly": 5269,
      "eur17": 5270,
      "downtown": 5271,
      "113": 5272,
      "111": 5273,
      "understand": 5274,
      "actions": 5275,
      "swedbank": 5276,
      "highl": 5277,
      "workforce": 5278,
      "describ": 5279,
      "continuation": 5280,
      "145": 5281,
      "handels": 5282,
      "##holds": 5283,
      "##airs": 5284,
      "repay": 5285,
      "##arks": 5286,
      "##ollisu": 5287,
      "resulted": 5288,
      "generate": 5289,
      "generates": 5290,
      "135": 5291,
      "english": 5292,
      "peeling": 5293,
      "timet": 5294,
      "thirds": 5295,
      "lahti": 5296,
      "trail": 5297,
      "carbon": 5298,
      "distance": 5299,
      "distinct": 5300,
      "story": 5301,
      "assemb": 5302,
      "loyal": 5303,
      "else": 5304,
      "french": 5305,
      "remote": 5306,
      "issu": 5307,
      "##ables": 5308,
      "globally": 5309,
      "basic": 5310,
      "##aching": 5311,
      "door": 5312,
      "kau": 5313,
      "kaupp": 5314,
      "modules": 5315,
      "turnkey": 5316,
      "mostly": 5317,
      "##uck": 5318,
      "asphalt": 5319,
      "smith": 5320,
      "discount": 5321,
      "supplying": 5322,
      "talo": 5323,
      "grinding": 5324,
      "extends": 5325,
      "energia": 5326,
      "powered": 5327,
      "211": 5328,
      "casing": 5329,
      "volun": 5330,
      "depending": 5331,
      "acquires": 5332,
      "measuring": 5333,
      "measured": 5334,
      "240": 5335,
      "241": 5336,
      "brows": 5337,
      "lift": 5338,
      "lifecycle": 5339,
      "internationally": 5340,
      "follows": 5341,
      "100mn": 5342,
      "299": 5343,
      "tyre": 5344,
      "tyrv": 5345,
      "tyrva": 5346,
      "concret": 5347,
      "laying": 5348,
      "minister": 5349,
      "eur2m": 5350,
      "driven": 5351,
      "opin": 5352,
      "pattern": 5353,
      "payable": 5354,
      "##ordinary": 5355,
      "##ordinated": 5356,
      "airport": 5357,
      "traditional": 5358,
      "reception": 5359,
      "locally": 5360,
      "launching": 5361,
      "believ": 5362,
      "liter": 5363,
      "sinter": 5364,
      "tii1v": 5365,
      "statistics": 5366,
      "270": 5367,
      "ebrd": 5368,
      "entir": 5369,
      "matter": 5370,
      "matters": 5371,
      "maturity": 5372,
      "exclusive": 5373,
      "supported": 5374,
      "restaur": 5375,
      "eur3m": 5376,
      "ahead": 5377,
      "qualcomm": 5378,
      "slow": 5379,
      "refurb": 5380,
      "suomi": 5381,
      "envis": 5382,
      "charge": 5383,
      "midnight": 5384,
      "creates": 5385,
      "eur43": 5386,
      "covered": 5387,
      "coverage": 5388,
      "poh1s": 5389,
      "analytics": 5390,
      "environments": 5391,
      "factories": 5392,
      "memorand": 5393,
      "experts": 5394,
      "turun": 5395,
      "##itsu": 5396,
      "foundries": 5397,
      "eur5m": 5398,
      "organic": 5399,
      "detailed": 5400,
      "authent": 5401,
      "eval": 5402,
      "events": 5403,
      "##telecom": 5404,
      "summit": 5405,
      "changing": 5406,
      "respective": 5407,
      "okm1v": 5408,
      "panel": 5409,
      "sih": 5410,
      "sievi": 5411,
      "biofu": 5412,
      "backup": 5413,
      "stands": 5414,
      "publication": 5415,
      "southe": 5416,
      "attempt": 5417,
      "privacy": 5418,
      "multimedia": 5419,
      "merge": 5420,
      "##alehti": 5421,
      "eur65": 5422,
      "shoe": 5423,
      "request": 5424,
      "fuels": 5425,
      "hamp": 5426,
      "##almi": 5427,
      "ships": 5428,
      "shipy": 5429,
      "households": 5430,
      "x201a": 5431,
      "460": 5432,
      "displ": 5433,
      "erkki": 5434,
      "ericsson": 5435,
      "nyberg": 5436,
      "turkish": 5437,
      "austrian": 5438,
      "cloud": 5439,
      "filed": 5440,
      "filter": 5441,
      "filters": 5442,
      "flexi": 5443,
      "protocol": 5444,
      "improvements": 5445,
      "break": 5446,
      "morgan": 5447,
      "navteq": 5448,
      "winter": 5449,
      "booked": 5450,
      "1997": 5451,
      "530": 5452,
      "534": 5453,
      "harri": 5454,
      "harvester": 5455,
      "rule": 5456,
      "satisf": 5457,
      "considered": 5458,
      "additionally": 5459,
      "gains": 5460,
      "osu": 5461,
      "oslo": 5462,
      "routes": 5463,
      "institute": 5464,
      "establishes": 5465,
      "streamlining": 5466,
      "honka": 5467,
      "involves": 5468,
      "modeling": 5469,
      "adjustment": 5470,
      "523": 5471,
      "mails": 5472,
      "environmentally": 5473,
      "graph": 5474,
      "karppinen": 5475,
      "paint": 5476,
      "##hani": 5477,
      "revolving": 5478,
      "copper": 5479,
      "copenh": 5480,
      "mikko": 5481,
      "##borg": 5482,
      "sustainability": 5483,
      "getting": 5484,
      "juhani": 5485,
      "names": 5486,
      "pipel": 5487,
      "uranium": 5488,
      "uruguay": 5489,
      "increasingly": 5490,
      "recommendations": 5491,
      "mylly": 5492,
      "tvo": 5493,
      "vietnam": 5494,
      "##trader": 5495,
      "marked": 5496,
      "grounds": 5497,
      "metsa": 5498,
      "achieved": 5499,
      "nrtsil": 5500,
      "tomorrow": 5501,
      "defined": 5502,
      "challenge": 5503,
      "challenges": 5504,
      "federation": 5505,
      "##where": 5506,
      "updated": 5507,
      "advertis": 5508,
      "surfaces": 5509,
      "concentrating": 5510,
      "career": 5511,
      "collab": 5512,
      "fireplace": 5513,
      "fireplaces": 5514,
      "kalnap": 5515,
      "snow": 5516,
      "svens": 5517,
      "contribution": 5518,
      "helping": 5519,
      "carrying": 5520,
      "calculated": 5521,
      "successfully": 5522,
      "fitness": 5523,
      "ivrcl": 5524,
      "kcr1v": 5525,
      "piet": 5526,
      "##field": 5527,
      "recognize": 5528,
      "relocate": 5529,
      "repeated": 5530,
      "rapidly": 5531,
      "anticipates": 5532,
      "spokeswoman": 5533,
      "renewable": 5534,
      "fibre": 5535,
      "fibers": 5536,
      "lux": 5537,
      "resolved": 5538,
      "switch": 5539,
      "switzer": 5540,
      "clarify": 5541,
      "repurchase": 5542,
      "assigned": 5543,
      "assignment": 5544,
      "instrument": 5545,
      "instruments": 5546,
      "deposit": 5547,
      "quickly": 5548,
      "bottom": 5549,
      "dynamic": 5550,
      "kallasvuo": 5551,
      "learning": 5552,
      "milestone": 5553,
      "sizes": 5554,
      "tuom": 5555,
      "##afone": 5556,
      "therapeut": 5557,
      "prospects": 5558,
      "exercising": 5559,
      "channel": 5560,
      "boosted": 5561,
      "megafon": 5562,
      "telephone": 5563,
      "extraordinary": 5564,
      "extraction": 5565,
      "disposal": 5566,
      "synergies": 5567,
      "crowns": 5568,
      "essential": 5569,
      "fabric": 5570,
      "picked": 5571,
      "rmr1v": 5572,
      "tasks": 5573,
      "##politan": 5574,
      "problems": 5575,
      "alternative": 5576,
      "magnet": 5577,
      "expenditure": 5578,
      "precision": 5579,
      "trainers": 5580,
      "removal": 5581,
      "airbus": 5582,
      "attached": 5583,
      "documentation": 5584,
      "merchant": 5585,
      "kilometres": 5586,
      "slovakia": 5587,
      "territory": 5588,
      "avenue": 5589,
      "birch": 5590,
      "bangalore": 5591,
      "cataly": 5592,
      "culture": 5593,
      "eqt": 5594,
      "kuitu": 5595,
      "others": 5596,
      "forssa": 5597,
      "margarine": 5598,
      "washington": 5599,
      "choose": 5600,
      "considering": 5601,
      "monitoring": 5602,
      "smoking": 5603,
      "fulfill": 5604,
      "wonderware": 5605,
      "vegetable": 5606,
      "fujitsu": 5607,
      "historic": 5608,
      "bunge": 5609,
      "djsi": 5610,
      "hollola": 5611,
      "hspa": 5612,
      "ibm": 5613,
      "lvl": 5614,
      "mmo1v": 5615,
      "niche": 5616,
      "oxy": 5617,
      "obtained": 5618,
      "rutav": 5619,
      "risfelt": 5620,
      "sverige": 5621,
      "tgk": 5622,
      "taiwan": 5623,
      "ultra": 5624,
      "vodafone": 5625,
      "wrote": 5626,
      "warmly": 5627,
      "wahlroos": 5628,
      "beijing": 5629,
      "shipments": 5630,
      "shalkiya": 5631,
      "nevertheless": 5632,
      "nevsky": 5633,
      "chennai": 5634,
      "ornamental": 5635,
      "meadville": 5636,
      "described": 5637,
      "handelsbanken": 5638,
      "assembly": 5639,
      "kauppalehti": 5640,
      "tyrvaan": 5641,
      "concrete": 5642,
      "midnighttrader": 5643,
      "memorandum": 5644,
      "copenhagen": 5645,
      "kalnapil": 5646,
      "switzerland": 5647,
      "2mn": 5648,
      "220": 5649,
      "3mn": 5650,
      "320": 5651,
      "620": 5652,
      "79": 5653,
      "850": 5654,
      "a3": 5655,
      "ale": 5656,
      "bh": 5657,
      "ban": 5658,
      "bit": 5659,
      "bos": 5660,
      "bod": 5661,
      "blo": 5662,
      "barg": 5663,
      "bert": 5664,
      "ce": 5665,
      "cv": 5666,
      "cg": 5667,
      "cj": 5668,
      "cin": 5669,
      "cra": 5670,
      "cum": 5671,
      "coc": 5672,
      "case": 5673,
      "cry": 5674,
      "cycle": 5675,
      "cxe": 5676,
      "dv": 5677,
      "dos": 5678,
      "dest": 5679,
      "dim": 5680,
      "dart": 5681,
      "dog": 5682,
      "die": 5683,
      "diss": 5684,
      "dna": 5685,
      "ek": 5686,
      "eli": 5687,
      "ethern": 5688,
      "efo": 5689,
      "fes": 5690,
      "fert": 5691,
      "folding": 5692,
      "gh": 5693,
      "gar": 5694,
      "gun": 5695,
      "gone": 5696,
      "geo": 5697,
      "garm": 5698,
      "game": 5699,
      "gmo": 5700,
      "hal": 5701,
      "hil": 5702,
      "here": 5703,
      "hatch": 5704,
      "hosp": 5705,
      "ifr": 5706,
      "iitt": 5707,
      "je": 5708,
      "ja": 5709,
      "jor": 5710,
      "jens": 5711,
      "ki": 5712,
      "kr": 5713,
      "kas": 5714,
      "kid": 5715,
      "kra": 5716,
      "kans": 5717,
      "lk": 5718,
      "les": 5719,
      "lar": 5720,
      "len": 5721,
      "las": 5722,
      "lum": 5723,
      "lend": 5724,
      "lov": 5725,
      "lever": 5726,
      "lures": 5727,
      "lights": 5728,
      "lining": 5729,
      "love": 5730,
      "liab": 5731,
      "lyn": 5732,
      "md": 5733,
      "mc": 5734,
      "m3": 5735,
      "mm": 5736,
      "mis": 5737,
      "mel": 5738,
      "mut": 5739,
      "mun": 5740,
      "mount": 5741,
      "mits": 5742,
      "mumb": 5743,
      "mention": 5744,
      "ns": 5745,
      "ni": 5746,
      "nk": 5747,
      "nur": 5748,
      "nit": 5749,
      "nem": 5750,
      "nki": 5751,
      "pon": 5752,
      "ped": 5753,
      "piv": 5754,
      "pra": 5755,
      "pav": 5756,
      "pank": 5757,
      "pract": 5758,
      "pelt": 5759,
      "pori": 5760,
      "qt": 5761,
      "rt": 5762,
      "ry": 5763,
      "rp": 5764,
      "rot": 5765,
      "rab": 5766,
      "rop": 5767,
      "rak": 5768,
      "rich": 5769,
      "rank": 5770,
      "rug": 5771,
      "rub": 5772,
      "rost": 5773,
      "rsp": 5774,
      "rising": 5775,
      "sr": 5776,
      "sod": 5777,
      "sri": 5778,
      "sens": 5779,
      "sve": 5780,
      "sister": 5781,
      "sized": 5782,
      "sending": 5783,
      "sense": 5784,
      "ta": 5785,
      "tum": 5786,
      "tort": 5787,
      "tight": 5788,
      "tie": 5789,
      "torn": 5790,
      "tunn": 5791,
      "tenth": 5792,
      "ul": 5793,
      "uae": 5794,
      "vt": 5795,
      "vl": 5796,
      "vel": 5797,
      "vill": 5798,
      "vim": 5799,
      "vary": 5800,
      "varm": 5801,
      "vwr": 5802,
      "wr": 5803,
      "wil": 5804,
      "wish": 5805,
      "wag": 5806,
      "wave": 5807,
      "wif": 5808,
      "yara": 5809,
      "yield": 5810,
      "##uine": 5811,
      "##uok": 5812,
      "##uous": 5813,
      "##uits": 5814,
      "##tom": 5815,
      "##ties": 5816,
      "##tti": 5817,
      "##tainment": 5818,
      "##sec": 5819,
      "##ship": 5820,
      "##ient": 5821,
      "##iard": 5822,
      "##ija": 5823,
      "##ique": 5824,
      "##iece": 5825,
      "##dr": 5826,
      "##dw": 5827,
      "##dam": 5828,
      "##eor": 5829,
      "##een": 5830,
      "##e1v": 5831,
      "##eisen": 5832,
      "##62": 5833,
      "##0mn": 5834,
      "##rel": 5835,
      "##rand": 5836,
      "##right": 5837,
      "##rators": 5838,
      "##fect": 5839,
      "##furt": 5840,
      "##cy": 5841,
      "##car": 5842,
      "##card": 5843,
      "##c1v": 5844,
      "##count": 5845,
      "##conn": 5846,
      "##cbv": 5847,
      "##ael": 5848,
      "##ois": 5849,
      "##ool": 5850,
      "##ns": 5851,
      "##n1v": 5852,
      "##n40": 5853,
      "##vin": 5854,
      "##van": 5855,
      "##vor": 5856,
      "##vio": 5857,
      "##vik": 5858,
      "##be": 5859,
      "##bat": 5860,
      "##bound": 5861,
      "##bden": 5862,
      "##list": 5863,
      "##long": 5864,
      "##lund": 5865,
      "##lery": 5866,
      "##42": 5867,
      "##31": 5868,
      "##80": 5869,
      "##8m": 5870,
      "##82": 5871,
      "##yond": 5872,
      "##yalt": 5873,
      "##ybden": 5874,
      "##pri": 5875,
      "##pose": 5876,
      "##hi": 5877,
      "##ho": 5878,
      "##has": 5879,
      "##how": 5880,
      "##hra": 5881,
      "##hio": 5882,
      "##honen": 5883,
      "##kers": 5884,
      "##kama": 5885,
      "##konen": 5886,
      "##gon": 5887,
      "##ges": 5888,
      "##gel": 5889,
      "##98": 5890,
      "##xx": 5891,
      "##xide": 5892,
      "##xbt": 5893,
      "##70": 5894,
      "##72": 5895,
      "##16": 5896,
      "##wa": 5897,
      "##wers": 5898,
      "##west": 5899,
      "##water": 5900,
      "##word": 5901,
      "##watch": 5902,
      "##jar": 5903,
      "##jas": 5904,
      "##junction": 5905,
      "##eras": 5906,
      "##erix": 5907,
      "##erling": 5908,
      "thin": 5909,
      "thing": 5910,
      "thre": 5911,
      "##inet": 5912,
      "##inne": 5913,
      "##invest": 5914,
      "##ese": 5915,
      "##esis": 5916,
      "##eskyla": 5917,
      "##anol": 5918,
      "##anne": 5919,
      "##aniemi": 5920,
      "ince": 5921,
      "inspect": 5922,
      "##oro": 5923,
      "##orpor": 5924,
      "##orative": 5925,
      "##edef": 5926,
      "##eness": 5927,
      "##att": 5928,
      "angel": 5929,
      "##inger": 5930,
      "toler": 5931,
      "##uri": 5932,
      "##iti": 5933,
      "##ita": 5934,
      "##ils": 5935,
      "##ilit": 5936,
      "##ilizer": 5937,
      "##oma": 5938,
      "##omass": 5939,
      "##isis": 5940,
      "##isure": 5941,
      "##ctor": 5942,
      "##iced": 5943,
      "##icks": 5944,
      "##elin": 5945,
      "##elter": 5946,
      "##etu": 5947,
      "##eter": 5948,
      "##etit": 5949,
      "##enty": 5950,
      "##sts": 5951,
      "##stre": 5952,
      "##stration": 5953,
      "##rew": 5954,
      "prote": 5955,
      "proline": 5956,
      "prohib": 5957,
      "prolong": 5958,
      "eurone": 5959,
      "##idence": 5960,
      "##eco": 5961,
      "##ecol": 5962,
      "finier": 5963,
      "##olutions": 5964,
      "stable": 5965,
      "strict": 5966,
      "stackers": 5967,
      "##ema": 5968,
      "isra": 5969,
      "islands": 5970,
      "##person": 5971,
      "##perumb": 5972,
      "ones": 5973,
      "onto": 5974,
      "conven": 5975,
      "confer": 5976,
      "convers": 5977,
      "congress": 5978,
      "conjunction": 5979,
      "bever": 5980,
      "beef": 5981,
      "beverage": 5982,
      "beyond": 5983,
      "##used": 5984,
      "##ushan": 5985,
      "##ivv": 5986,
      "sap": 5987,
      "saud": 5988,
      "willia": 5989,
      "##ersive": 5990,
      "##ishi": 5991,
      "##leaching": 5992,
      "shed": 5993,
      "shel": 5994,
      "shot": 5995,
      "ash": 5996,
      "##osat": 5997,
      "##though": 5998,
      "##thenburg": 5999,
      "rehu": 6000,
      "reiter": 6001,
      "reactors": 6002,
      "##ula": 6003,
      "##uly": 6004,
      "##ulate": 6005,
      "##ulates": 6006,
      "##ulatory": 6007,
      "##ador": 6008,
      "##ayed": 6009,
      "##owled": 6010,
      "exam": 6011,
      "exhib": 6012,
      "permit": 6013,
      "perfect": 6014,
      "neigh": 6015,
      "neud": 6016,
      "nexbt": 6017,
      "hass": 6018,
      "##ppines": 6019,
      "##imap": 6020,
      "operated": 6021,
      "alp": 6022,
      "alone": 6023,
      "alliance": 6024,
      "aln1v": 6025,
      "although": 6026,
      "incur": 6027,
      "inclusive": 6028,
      "incorpor": 6029,
      "##oty": 6030,
      "##rava": 6031,
      "martin": 6032,
      "marath": 6033,
      "enjo": 6034,
      "whom": 6035,
      "yearly": 6036,
      "##ocket": 6037,
      "##ially": 6038,
      "coal": 6039,
      "cool": 6040,
      "coag": 6041,
      "##00m": 6042,
      "acg1v": 6043,
      "ackn": 6044,
      "##ervice": 6045,
      "##apt": 6046,
      "##apies": 6047,
      "contr": 6048,
      "predef": 6049,
      "chp": 6050,
      "chil": 6051,
      "chance": 6052,
      "choice": 6053,
      "cheap": 6054,
      "chapter": 6055,
      "served": 6056,
      "servers": 6057,
      "unsec": 6058,
      "unique": 6059,
      "##berry": 6060,
      "##oph": 6061,
      "##avi": 6062,
      "##aver": 6063,
      "##aven": 6064,
      "2015": 6065,
      "ord": 6066,
      "helast": 6067,
      "marketplace": 6068,
      "marketwatch": 6069,
      "##vere": 6070,
      "##ellation": 6071,
      "##okinet": 6072,
      "##isten": 6073,
      "##antel": 6074,
      "##alls": 6075,
      "resource": 6076,
      "seb": 6077,
      "season": 6078,
      "seats": 6079,
      "trying": 6080,
      "truly": 6081,
      "##dered": 6082,
      "adding": 6083,
      "adac": 6084,
      "adapt": 6085,
      "indicate": 6086,
      "indosat": 6087,
      "2007a": 6088,
      "offset": 6089,
      "abs": 6090,
      "abn": 6091,
      "agm": 6092,
      "agend": 6093,
      "box": 6094,
      "boxes": 6095,
      "boomer": 6096,
      "##rix": 6097,
      "##riev": 6098,
      "##rietary": 6099,
      "capable": 6100,
      "##echn": 6101,
      "appar": 6102,
      "appeal": 6103,
      "##anger": 6104,
      "weight": 6105,
      "investing": 6106,
      "accomm": 6107,
      "##liest": 6108,
      "##ugg": 6109,
      "deb": 6110,
      "deep": 6111,
      "height": 6112,
      "spare": 6113,
      "techno": 6114,
      "meg": 6115,
      "interrup": 6116,
      "interconn": 6117,
      "outcome": 6118,
      "annum": 6119,
      "proven": 6120,
      "consort": 6121,
      "consecut": 6122,
      "helsing": 6123,
      "intake": 6124,
      "intensive": 6125,
      "supplied": 6126,
      "commence": 6127,
      "communities": 6128,
      "lean": 6129,
      "leed": 6130,
      "leak": 6131,
      "left": 6132,
      "leaving": 6133,
      "leisure": 6134,
      "telanne": 6135,
      "106": 6136,
      "10mn": 6137,
      "makers": 6138,
      "earned": 6139,
      "earliest": 6140,
      "relates": 6141,
      "##ensions": 6142,
      "strand": 6143,
      "strugg": 6144,
      "bras": 6145,
      "##factor": 6146,
      "builders": 6147,
      "##ubishi": 6148,
      "##ford": 6149,
      "phil": 6150,
      "phot": 6151,
      "phys": 6152,
      "phili": 6153,
      "meteor": 6154,
      "paul": 6155,
      "prep": 6156,
      "precor": 6157,
      "afe1v": 6158,
      "financially": 6159,
      "financialwire": 6160,
      "valke": 6161,
      "valley": 6162,
      "delhi": 6163,
      "delayed": 6164,
      "raiff": 6165,
      "raivv": 6166,
      "##eks": 6167,
      "##ekoski": 6168,
      "swiss": 6169,
      "soy": 6170,
      "##ibis": 6171,
      "##ibilities": 6172,
      "impress": 6173,
      "approx": 6174,
      "approve": 6175,
      "appropri": 6176,
      "122": 6177,
      "155": 6178,
      "159": 6179,
      "equal": 6180,
      "##sey": 6181,
      "delivers": 6182,
      "delivering": 6183,
      "clos": 6184,
      "scaff": 6185,
      "sciences": 6186,
      "sciard": 6187,
      "##urred": 6188,
      "##lden": 6189,
      "twh": 6190,
      "eur14": 6191,
      "eur19": 6192,
      "eur150m": 6193,
      "##ubles": 6194,
      "302": 6195,
      "download": 6196,
      "116": 6197,
      "118": 6198,
      "112": 6199,
      "overla": 6200,
      "undert": 6201,
      "acting": 6202,
      "paperboard": 6203,
      "genuine": 6204,
      "mediation": 6205,
      "workfl": 6206,
      "##vency": 6207,
      "deskt": 6208,
      "samas": 6209,
      "continents": 6210,
      "continental": 6211,
      "continuous": 6212,
      "secondary": 6213,
      "143": 6214,
      "retire": 6215,
      "retaining": 6216,
      "##press": 6217,
      "processor": 6218,
      "handle": 6219,
      "handled": 6220,
      "##holders": 6221,
      "announce": 6222,
      "omxn40": 6223,
      "253": 6224,
      "259": 6225,
      "resulting": 6226,
      "deals": 6227,
      "generating": 6228,
      "estimation": 6229,
      "134": 6230,
      "131": 6231,
      "auto": 6232,
      "joins": 6233,
      "timber": 6234,
      "holder": 6235,
      "holders": 6236,
      "heads": 6237,
      "leadership": 6238,
      "assist": 6239,
      "1649": 6240,
      "crore": 6241,
      "crisis": 6242,
      "globes": 6243,
      "franc": 6244,
      "##teers": 6245,
      "##atories": 6246,
      "185": 6247,
      "basket": 6248,
      "##udur": 6249,
      "bothnia": 6250,
      "doppl": 6251,
      "instead": 6252,
      "engineer": 6253,
      "engineers": 6254,
      "174": 6255,
      "172": 6256,
      "module": 6257,
      "modelling": 6258,
      "vaias": 6259,
      "##ucing": 6260,
      "flight": 6261,
      "smelter": 6262,
      "##arsvar": 6263,
      "distributions": 6264,
      "gla1v": 6265,
      "glisten": 6266,
      "latter": 6267,
      "latvi": 6268,
      "lattelecom": 6269,
      "stakeholders": 6270,
      "talk": 6271,
      "communicated": 6272,
      "grade": 6273,
      "grants": 6274,
      "grupp": 6275,
      "avest": 6276,
      "portal": 6277,
      "portti": 6278,
      "extend": 6279,
      "remains": 6280,
      "powerful": 6281,
      "cutlery": 6282,
      "##lahti": 6283,
      "depth": 6284,
      "depot": 6285,
      "measure": 6286,
      "245": 6287,
      "lifet": 6288,
      "baltics": 6289,
      "layer": 6290,
      "minn": 6291,
      "eur23": 6292,
      "eur28": 6293,
      "eur25": 6294,
      "eur21m": 6295,
      "controlling": 6296,
      "controller": 6297,
      "actively": 6298,
      "dress": 6299,
      "driving": 6300,
      "schult": 6301,
      "school": 6302,
      "gothenburg": 6303,
      "patric": 6304,
      "payments": 6305,
      "airports": 6306,
      "airlines": 6307,
      "polish": 6308,
      "polyt": 6309,
      "lowered": 6310,
      "rob": 6311,
      "rough": 6312,
      "entertainment": 6313,
      "meetings": 6314,
      "330": 6315,
      "belgian": 6316,
      "insight": 6317,
      "savon": 6318,
      "awards": 6319,
      "lietu": 6320,
      "teus": 6321,
      "proprietary": 6322,
      "entity": 6323,
      "maturing": 6324,
      "sett": 6325,
      "##icient": 6326,
      "excited": 6327,
      "restrict": 6328,
      "##ways": 6329,
      "combine": 6330,
      "combines": 6331,
      "image": 6332,
      "eur30m": 6333,
      "maintain": 6334,
      "disclosure": 6335,
      "aho": 6336,
      "slid": 6337,
      "slide": 6338,
      "slash": 6339,
      "##asters": 6340,
      "refused": 6341,
      "emt": 6342,
      "subordinated": 6343,
      "affairs": 6344,
      "affarsvar": 6345,
      "paris": 6346,
      "pulkov": 6347,
      "packed": 6348,
      "insurer": 6349,
      "respond": 6350,
      "weekly": 6351,
      "effectively": 6352,
      "representatives": 6353,
      "eur42": 6354,
      "eur40m": 6355,
      "firms": 6356,
      "automob": 6357,
      "automatically": 6358,
      "450": 6359,
      "factor": 6360,
      "tik1v": 6361,
      "##aho": 6362,
      "##metics": 6363,
      "executed": 6364,
      "executives": 6365,
      "quote": 6366,
      "waterbor": 6367,
      "waterque": 6368,
      "386": 6369,
      "385": 6370,
      "ideal": 6371,
      "lemcon": 6372,
      "eur50m": 6373,
      "organized": 6374,
      "70mn": 6375,
      "bns": 6376,
      "commitments": 6377,
      "##shire": 6378,
      "##ooth": 6379,
      "affectogen": 6380,
      "antenna": 6381,
      "anttila": 6382,
      "platen": 6383,
      "presentation": 6384,
      "presently": 6385,
      "321": 6386,
      "parks": 6387,
      "schedules": 6388,
      "432": 6389,
      "attention": 6390,
      "attacks": 6391,
      "subscribe": 6392,
      "authorized": 6393,
      "merging": 6394,
      "surpass": 6395,
      "eur61": 6396,
      "consultant": 6397,
      "consolidation": 6398,
      "consolidating": 6399,
      "imported": 6400,
      "importance": 6401,
      "561": 6402,
      "shipbuil": 6403,
      "sek1": 6404,
      "administ": 6405,
      "apiece": 6406,
      "apetit": 6407,
      "bigger": 6408,
      "ventures": 6409,
      "##vaeskyla": 6410,
      "structural": 6411,
      "liquef": 6412,
      "disput": 6413,
      "ervio": 6414,
      "fallen": 6415,
      "lowest": 6416,
      "##book": 6417,
      "superior": 6418,
      "looks": 6419,
      "telecomms": 6420,
      "innova": 6421,
      "innovation": 6422,
      "film": 6423,
      "protect": 6424,
      "converting": 6425,
      "integrate": 6426,
      "associates": 6427,
      "skf": 6428,
      "wins": 6429,
      "winning": 6430,
      "books": 6431,
      "alexander": 6432,
      "harvest": 6433,
      "ill": 6434,
      "museum": 6435,
      "nnen": 6436,
      "nnekoski": 6437,
      "altima": 6438,
      "methods": 6439,
      "premier": 6440,
      "runs": 6441,
      "silva": 6442,
      "visit": 6443,
      "liquidity": 6444,
      "arranged": 6445,
      "arrangement": 6446,
      "012": 6447,
      "biological": 6448,
      "biomass": 6449,
      "labels": 6450,
      "promise": 6451,
      "promote": 6452,
      "eur7m": 6453,
      "involve": 6454,
      "adjusted": 6455,
      "hotels": 6456,
      "jyvaeskyla": 6457,
      "radiation": 6458,
      "reading": 6459,
      "150mn": 6460,
      "artic": 6461,
      "045": 6462,
      "balanced": 6463,
      "limit": 6464,
      "##hana": 6465,
      "copying": 6466,
      "prime": 6467,
      "inventor": 6468,
      "inventors": 6469,
      "inventory": 6470,
      "concerned": 6471,
      "proposes": 6472,
      "proposals": 6473,
      "initiative": 6474,
      "navigator": 6475,
      "612": 6476,
      "editor": 6477,
      "immersive": 6478,
      "##dened": 6479,
      "elevator": 6480,
      "oldest": 6481,
      "tulonen": 6482,
      "urban": 6483,
      "exported": 6484,
      "separating": 6485,
      "separated": 6486,
      "explains": 6487,
      "healthy": 6488,
      "speak": 6489,
      "bullet": 6490,
      "bullish": 6491,
      "bulgar": 6492,
      "cellulose": 6493,
      "duties": 6494,
      "stationery": 6495,
      "smartphones": 6496,
      "identical": 6497,
      "laboratories": 6498,
      "aluminum": 6499,
      "860": 6500,
      "furnaces": 6501,
      "tomtom": 6502,
      "wholesal": 6503,
      "breweries": 6504,
      "challenging": 6505,
      "borrow": 6506,
      "citing": 6507,
      "korean": 6508,
      "message": 6509,
      "nominal": 6510,
      "obl": 6511,
      "pcbs": 6512,
      "skiers": 6513,
      "update": 6514,
      "updates": 6515,
      "intellibis": 6516,
      "britain": 6517,
      "noticeable": 6518,
      "allowed": 6519,
      "feature": 6520,
      "featuring": 6521,
      "featured": 6522,
      "brokerage": 6523,
      "concludes": 6524,
      "particularly": 6525,
      "geosolutions": 6526,
      "cancellation": 6527,
      "collar": 6528,
      "kilos": 6529,
      "ragot": 6530,
      "walking": 6531,
      "##skoski": 6532,
      "##vesta": 6533,
      "helped": 6534,
      "specified": 6535,
      "metropolitan": 6536,
      "scandinavia": 6537,
      "demonstration": 6538,
      "kyroskoski": 6539,
      "becomes": 6540,
      "cameras": 6541,
      "cameco": 6542,
      "farms": 6543,
      "verizon": 6544,
      "##linna": 6545,
      "infl": 6546,
      "infra": 6547,
      "##oriasis": 6548,
      "behalf": 6549,
      "behind": 6550,
      "##uskunta": 6551,
      "reserves": 6552,
      "reserved": 6553,
      "relocation": 6554,
      "grades": 6555,
      "policies": 6556,
      "colorful": 6557,
      "spokesperson": 6558,
      "fastest": 6559,
      "tailor": 6560,
      "voima": 6561,
      "##ittal": 6562,
      "eur20m": 6563,
      "outsourced": 6564,
      "outsourcing": 6565,
      "preparing": 6566,
      "preparation": 6567,
      "corresponds": 6568,
      "clarity": 6569,
      "repurchased": 6570,
      "optimization": 6571,
      "pursue": 6572,
      "deposits": 6573,
      "reflects": 6574,
      "supervision": 6575,
      "supervisory": 6576,
      "normally": 6577,
      "diagnostics": 6578,
      "burdened": 6579,
      "doktas": 6580,
      "hosting": 6581,
      "molybden": 6582,
      "pushed": 6583,
      "therapies": 6584,
      "proceeds": 6585,
      "exercise": 6586,
      "channels": 6587,
      "consistent": 6588,
      "consistency": 6589,
      "preferred": 6590,
      "climbed": 6591,
      "1989": 6592,
      "critical": 6593,
      "discussions": 6594,
      "determined": 6595,
      "determining": 6596,
      "attractive": 6597,
      "geographical": 6598,
      "disposable": 6599,
      "synergy": 6600,
      "favorite": 6601,
      "pipettes": 6602,
      "pipettors": 6603,
      "demonstrates": 6604,
      "thousands": 6605,
      "subcontractor": 6606,
      "subcontractors": 6607,
      "bags": 6608,
      "cosmetics": 6609,
      "easier": 6610,
      "michael": 6611,
      "riga": 6612,
      "rigid": 6613,
      "semin": 6614,
      "##energo": 6615,
      "answer": 6616,
      "strait": 6617,
      "sufficient": 6618,
      "residents": 6619,
      "tripled": 6620,
      "appears": 6621,
      "##lifier": 6622,
      "headbox": 6623,
      "headboxes": 6624,
      "refinance": 6625,
      "supermarkets": 6626,
      "circulation": 6627,
      "circulating": 6628,
      "renovation": 6629,
      "cnc1v": 6630,
      "cartel": 6631,
      "henrik": 6632,
      "hopes": 6633,
      "langu": 6634,
      "library": 6635,
      "mandatory": 6636,
      "mortg": 6637,
      "nationwide": 6638,
      "owing": 6639,
      "pirkka": 6640,
      "written": 6641,
      "thesis": 6642,
      "procedure": 6643,
      "exceeded": 6644,
      "maritime": 6645,
      "budget": 6646,
      "norske": 6647,
      "provisioning": 6648,
      "reliable": 6649,
      "diversified": 6650,
      "frankfurt": 6651,
      "flagship": 6652,
      "discontinue": 6653,
      "pharmacokinet": 6654,
      "simplif": 6655,
      "warrant": 6656,
      "weaknesses": 6657,
      "inaugurated": 6658,
      "ceramic": 6659,
      "journal": 6660,
      "uncertainties": 6661,
      "arabia": 6662,
      "disappoint": 6663,
      "observed": 6664,
      "slaughterhouse": 6665,
      "amplifier": 6666,
      "benecol": 6667,
      "caused": 6668,
      "ethanol": 6669,
      "fisas": 6670,
      "failed": 6671,
      "gallerix": 6672,
      "jvc": 6673,
      "otto": 6674,
      "psoriasis": 6675,
      "pioneer": 6676,
      "rantanen": 6677,
      "sarantel": 6678,
      "##maker": 6679,
      "comfort": 6680,
      "compatible": 6681,
      "shifts": 6682,
      "plaza": 6683,
      "chicago": 6684,
      "resignation": 6685,
      "aggregate": 6686,
      "spanning": 6687,
      "spread": 6688,
      "outdoor": 6689,
      "telemig": 6690,
      "feasibility": 6691,
      "timetable": 6692,
      "elsewhere": 6693,
      "kauha": 6694,
      "volunteers": 6695,
      "browser": 6696,
      "patterns": 6697,
      "restaurant": 6698,
      "refurbish": 6699,
      "envisaged": 6700,
      "authentication": 6701,
      "sihvo": 6702,
      "biofuels": 6703,
      "southeastern": 6704,
      "hampshire": 6705,
      "display": 6706,
      "satisfied": 6707,
      "osuuskunta": 6708,
      "graphic": 6709,
      "pipeline": 6710,
      "svenska": 6711,
      "therapeutic": 6712,
      "catalysts": 6713,
      "oxygen": 6714,
      "aleks": 6715,
      "bhushan": 6716,
      "bertrand": 6717,
      "cgcbv": 6718,
      "cjsc": 6719,
      "cinema": 6720,
      "coca": 6721,
      "doses": 6722,
      "ethernet": 6723,
      "efo1v": 6724,
      "fesco": 6725,
      "fertilizer": 6726,
      "garmin": 6727,
      "hilton": 6728,
      "hospital": 6729,
      "ifrs": 6730,
      "iittala": 6731,
      "lkab": 6732,
      "larox": 6733,
      "lenders": 6734,
      "leverage": 6735,
      "mutual": 6736,
      "munich": 6737,
      "mitsubishi": 6738,
      "mumbai": 6739,
      "mentioned": 6740,
      "nurminen": 6741,
      "nembv": 6742,
      "rakvere": 6743,
      "rspo": 6744,
      "srl": 6745,
      "sriperumb": 6746,
      "sensor": 6747,
      "tortue": 6748,
      "tunnel": 6749,
      "vlad": 6750,
      "village": 6751,
      "vimp": 6752,
      "varma": 6753,
      "wilson": 6754,
      "wagon": 6755,
      "wife": 6756,
      "##uokra": 6757,
      "##jarvi": 6758,
      "threat": 6759,
      "angeles": 6760,
      "##stream": 6761,
      "prohibited": 6762,
      "euronext": 6763,
      "finieris": 6764,
      "beverages": 6765,
      "saudi": 6766,
      "##owledged": 6767,
      "exhibition": 6768,
      "neudorf": 6769,
      "nexbtl": 6770,
      "marathon": 6771,
      "enjoy": 6772,
      "coagul": 6773,
      "acknowledged": 6774,
      "predefined": 6775,
      "unsecured": 6776,
      "helasto": 6777,
      "agenda": 6778,
      "accommod": 6779,
      "interrupted": 6780,
      "consortium": 6781,
      "consecutive": 6782,
      "physical": 6783,
      "philippines": 6784,
      "valkeakoski": 6785,
      "raiffeisen": 6786,
      "appropriate": 6787,
      "scaffolding": 6788,
      "desktop": 6789,
      "dopplr": 6790,
      "latvijas": 6791,
      "gruppen": 6792,
      "polytechn": 6793,
      "affarsvarlden": 6794,
      "pulkovo": 6795,
      "automobile": 6796,
      "waterborne": 6797,
      "waterqueen": 6798,
      "affectogenimap": 6799,
      "liquefied": 6800,
      "dispute": 6801,
      "harvesting": 6802,
      "jyvaeskylae": 6803,
      "bulgaria": 6804,
      "molybdenum": 6805,
      "sriperumbudur": 6806,
      "2m": 6807,
      "2g": 6808,
      "4mn": 6809,
      "420": 6810,
      "520": 6811,
      "6mn": 6812,
      "720": 6813,
      "a6": 6814,
      "ay": 6815,
      "ax": 6816,
      "aal": 6817,
      "ail": 6818,
      "afor": 6819,
      "ahol": 6820,
      "aalt": 6821,
      "astan": 6822,
      "axe": 6823,
      "bb": 6824,
      "b2": 6825,
      "bj": 6826,
      "bat": 6827,
      "bil": 6828,
      "bic": 6829,
      "bent": 6830,
      "bill": 6831,
      "bad": 6832,
      "bay": 6833,
      "bow": 6834,
      "bly": 6835,
      "bra": 6836,
      "bust": 6837,
      "boss": 6838,
      "berg": 6839,
      "bisc": 6840,
      "bps": 6841,
      "bss": 6842,
      "bjor": 6843,
      "bern": 6844,
      "batch": 6845,
      "bcs": 6846,
      "bbl": 6847,
      "bath": 6848,
      "brian": 6849,
      "blog": 6850,
      "btt": 6851,
      "cf": 6852,
      "cet": 6853,
      "cand": 6854,
      "cess": 6855,
      "cow": 6856,
      "cock": 6857,
      "cater": 6858,
      "cala": 6859,
      "cern": 6860,
      "cider": 6861,
      "catch": 6862,
      "ccs": 6863,
      "cba": 6864,
      "cele": 6865,
      "caver": 6866,
      "du": 6867,
      "di": 6868,
      "dn": 6869,
      "db": 6870,
      "dw": 6871,
      "dish": 6872,
      "dow": 6873,
      "dial": 6874,
      "dag": 6875,
      "dip": 6876,
      "dio": 6877,
      "dib": 6878,
      "dates": 6879,
      "dair": 6880,
      "dram": 6881,
      "dosing": 6882,
      "doring": 6883,
      "e3": 6884,
      "era": 6885,
      "eag": 6886,
      "eri": 6887,
      "eron": 6888,
      "e50": 6889,
      "efi": 6890,
      "epi": 6891,
      "fen": 6892,
      "fid": 6893,
      "fia": 6894,
      "fant": 6895,
      "foun": 6896,
      "flu": 6897,
      "fix": 6898,
      "fancy": 6899,
      "felt": 6900,
      "fold": 6901,
      "filling": 6902,
      "gd": 6903,
      "gb": 6904,
      "gor": 6905,
      "gol": 6906,
      "gear": 6907,
      "gts": 6908,
      "gate": 6909,
      "gant": 6910,
      "gpr": 6911,
      "gsm": 6912,
      "gather": 6913,
      "ghana": 6914,
      "hb": 6915,
      "hp": 6916,
      "han": 6917,
      "hun": 6918,
      "hus": 6919,
      "hart": 6920,
      "hank": 6921,
      "hock": 6922,
      "hint": 6923,
      "hund": 6924,
      "hack": 6925,
      "halt": 6926,
      "hame": 6927,
      "hull": 6928,
      "haven": 6929,
      "ig": 6930,
      "iet": 6931,
      "icon": 6932,
      "iii": 6933,
      "ign": 6934,
      "icel": 6935,
      "jet": 6936,
      "jim": 6937,
      "jac": 6938,
      "jari": 6939,
      "jord": 6940,
      "jaston": 6941,
      "jsc": 6942,
      "kh": 6943,
      "kg": 6944,
      "kw": 6945,
      "kel": 6946,
      "kot": 6947,
      "kev": 6948,
      "kust": 6949,
      "kop": 6950,
      "kri": 6951,
      "kerm": 6952,
      "kick": 6953,
      "kpi": 6954,
      "lp": 6955,
      "lan": 6956,
      "lion": 6957,
      "lad": 6958,
      "lod": 6959,
      "lies": 6960,
      "lag": 6961,
      "lans": 6962,
      "lak": 6963,
      "lember": 6964,
      "lock": 6965,
      "lse": 6966,
      "lake": 6967,
      "losing": 6968,
      "lcc": 6969,
      "living": 6970,
      "lots": 6971,
      "lenn": 6972,
      "lening": 6973,
      "ml": 6974,
      "mg": 6975,
      "mas": 6976,
      "mform": 6977,
      "might": 6978,
      "mix": 6979,
      "malt": 6980,
      "merc": 6981,
      "mert": 6982,
      "mti": 6983,
      "nv": 6984,
      "nm": 6985,
      "nh": 6986,
      "nic": 6987,
      "nut": 6988,
      "nia": 6989,
      "nad": 6990,
      "nts": 6991,
      "night": 6992,
      "nurs": 6993,
      "nalm": 6994,
      "neder": 6995,
      "nissan": 6996,
      "ntt": 6997,
      "nils": 6998,
      "ote": 6999,
      "ovi": 7000,
      "ostrom": 7001,
      "ooo": 7002,
      "ova": 7003,
      "oasis": 7004,
      "ohio": 7005,
      "pd": 7006,
      "pn": 7007,
      "pes": 7008,
      "por": 7009,
      "pod": 7010,
      "pts": 7011,
      "pine": 7012,
      "pak": 7013,
      "pda": 7014,
      "ports": 7015,
      "penn": 7016,
      "q3": 7017,
      "qing": 7018,
      "quar": 7019,
      "rb": 7020,
      "rod": 7021,
      "rum": 7022,
      "rog": 7023,
      "rock": 7024,
      "rational": 7025,
      "rents": 7026,
      "rink": 7027,
      "raken": 7028,
      "rush": 7029,
      "risen": 7030,
      "roro": 7031,
      "rocket": 7032,
      "rubles": 7033,
      "ss": 7034,
      "sd": 7035,
      "ser": 7036,
      "som": 7037,
      "sas": 7038,
      "sir": 7039,
      "sul": 7040,
      "sot": 7041,
      "sok": 7042,
      "sast": 7043,
      "sure": 7044,
      "sda": 7045,
      "sna": 7046,
      "sky": 7047,
      "soci": 7048,
      "slud": 7049,
      "s60": 7050,
      "sony": 7051,
      "soph": 7052,
      "tt": 7053,
      "tb": 7054,
      "tin": 7055,
      "tit": 7056,
      "tic": 7057,
      "tell": 7058,
      "tire": 7059,
      "tens": 7060,
      "tse": 7061,
      "tata": 7062,
      "tree": 7063,
      "tah": 7064,
      "tanks": 7065,
      "taur": 7066,
      "teva": 7067,
      "tls": 7068,
      "uv": 7069,
      "um": 7070,
      "ubs": 7071,
      "umb": 7072,
      "uutis": 7073,
      "vs": 7074,
      "vp": 7075,
      "von": 7076,
      "vit": 7077,
      "vic": 7078,
      "vart": 7079,
      "vares": 7080,
      "volog": 7081,
      "vian": 7082,
      "vib": 7083,
      "vision": 7084,
      "vide": 7085,
      "vost": 7086,
      "vii": 7087,
      "vdw": 7088,
      "wt": 7089,
      "wi": 7090,
      "wo": 7091,
      "wol": 7092,
      "wig": 7093,
      "wim": 7094,
      "wra": 7095,
      "wire": 7096,
      "wys": 7097,
      "wars": 7098,
      "wester": 7099,
      "wider": 7100,
      "xpress": 7101,
      "yr": 7102,
      "ya": 7103,
      "yl": 7104,
      "youn": 7105,
      "yout": 7106,
      "yli": 7107,
      "yah": 7108,
      "yty": 7109,
      "zain": 7110,
      "zah": 7111,
      "zao": 7112,
      "£lem": 7113,
      "##ua": 7114,
      "##ux": 7115,
      "##uel": 7116,
      "##tb": 7117,
      "##tual": 7118,
      "##tek": 7119,
      "##time": 7120,
      "##sen": 7121,
      "##sam": 7122,
      "##sko": 7123,
      "##seller": 7124,
      "##salmi": 7125,
      "##iel": 7126,
      "##ius": 7127,
      "##ios": 7128,
      "##iors": 7129,
      "##iola": 7130,
      "##iisa": 7131,
      "##ijo": 7132,
      "##dro": 7133,
      "##dent": 7134,
      "##dra": 7135,
      "##dong": 7136,
      "##down": 7137,
      "##eil": 7138,
      "##eem": 7139,
      "##eki": 7140,
      "##63": 7141,
      "##ris": 7142,
      "##rill": 7143,
      "##rus": 7144,
      "##rig": 7145,
      "##rad": 7146,
      "##rell": 7147,
      "##rank": 7148,
      "##rics": 7149,
      "##rise": 7150,
      "##rane": 7151,
      "##rstar": 7152,
      "##rinne": 7153,
      "##fan": 7154,
      "##f1v": 7155,
      "##fication": 7156,
      "##cm": 7157,
      "##cp": 7158,
      "##ces": 7159,
      "##cul": 7160,
      "##cell": 7161,
      "##core": 7162,
      "##cour": 7163,
      "##cyc": 7164,
      "##caly": 7165,
      "##aj": 7166,
      "##aut": 7167,
      "##app": 7168,
      "##aud": 7169,
      "##azi": 7170,
      "##oul": 7171,
      "##och": 7172,
      "##o1v": 7173,
      "##ozh": 7174,
      "##ofactor": 7175,
      "##nu": 7176,
      "##ners": 7177,
      "##nos": 7178,
      "##nits": 7179,
      "##nusk": 7180,
      "##vil": 7181,
      "##vay": 7182,
      "##voc": 7183,
      "##vals": 7184,
      "##voo": 7185,
      "##bel": 7186,
      "##ble": 7187,
      "##bul": 7188,
      "##bow": 7189,
      "##bac": 7190,
      "##bour": 7191,
      "##back": 7192,
      "##bind": 7193,
      "##burs": 7194,
      "##los": 7195,
      "##lia": 7196,
      "##lass": 7197,
      "##47": 7198,
      "##41": 7199,
      "##400": 7200,
      "##4mn": 7201,
      "##86": 7202,
      "##88": 7203,
      "##mt": 7204,
      "##my": 7205,
      "##mon": 7206,
      "##men": 7207,
      "##mant": 7208,
      "##mans": 7209,
      "##merg": 7210,
      "##mons": 7211,
      "##yer": 7212,
      "##yur": 7213,
      "##year": 7214,
      "##y1v": 7215,
      "##yuan": 7216,
      "##57": 7217,
      "##51": 7218,
      "##pev": 7219,
      "##pac": 7220,
      "##pend": 7221,
      "##pite": 7222,
      "##public": 7223,
      "##hr": 7224,
      "##har": 7225,
      "##hen": 7226,
      "##hall": 7227,
      "##hard": 7228,
      "##hang": 7229,
      "##h1v": 7230,
      "##hous": 7231,
      "##haus": 7232,
      "##held": 7233,
      "##hden": 7234,
      "##habil": 7235,
      "##hdent": 7236,
      "##k2": 7237,
      "##ken": 7238,
      "##kim": 7239,
      "##kila": 7240,
      "##kamo": 7241,
      "##kull": 7242,
      "##gb": 7243,
      "##gement": 7244,
      "##gart": 7245,
      "##gence": 7246,
      "##gree": 7247,
      "##gged": 7248,
      "##gvesta": 7249,
      "##28": 7250,
      "##200": 7251,
      "##97": 7252,
      "##9mn": 7253,
      "##71": 7254,
      "##wed": 7255,
      "##wal": 7256,
      "##wing": 7257,
      "##wso": 7258,
      "##wagen": 7259,
      "##zzan": 7260,
      "##qvar": 7261,
      "##ju": 7262,
      "##jon": 7263,
      "##jat": 7264,
      "##jek": 7265,
      "##eri": 7266,
      "##eric": 7267,
      "##eria": 7268,
      "##erts": 7269,
      "##erating": 7270,
      "##erate": 7271,
      "##erical": 7272,
      "##eristics": 7273,
      "thank": 7274,
      "therm": 7275,
      "things": 7276,
      "though": 7277,
      "##inum": 7278,
      "##inity": 7279,
      "##inate": 7280,
      "##inko": 7281,
      "##inburg": 7282,
      "##ono": 7283,
      "##onev": 7284,
      "##onlahti": 7285,
      "##onaho": 7286,
      "##onrinne": 7287,
      "##esas": 7288,
      "##ani": 7289,
      "ing": 7290,
      "inject": 7291,
      "instruct": 7292,
      "ingr": 7293,
      "inorgan": 7294,
      "inked": 7295,
      "##ora": 7296,
      "##orate": 7297,
      "##orant": 7298,
      "##orization": 7299,
      "##ornia": 7300,
      "##ared": 7301,
      "##arit": 7302,
      "##arus": 7303,
      "##arts": 7304,
      "##arket": 7305,
      "##areness": 7306,
      "##ener": 7307,
      "##enet": 7308,
      "##enos": 7309,
      "##enad": 7310,
      "##enonen": 7311,
      "##enberg": 7312,
      "##enzh": 7313,
      "##endered": 7314,
      "##atic": 7315,
      "##atow": 7316,
      "##atra": 7317,
      "##atela": 7318,
      "##roit": 7319,
      "##roun": 7320,
      "##roch": 7321,
      "##rots": 7322,
      "##alu": 7323,
      "##ald": 7324,
      "##alon": 7325,
      "##aled": 7326,
      "##ally": 7327,
      "##alert": 7328,
      "##alainen": 7329,
      "##alinko": 7330,
      "anch": 7331,
      "angl": 7332,
      "anode": 7333,
      "##ioned": 7334,
      "toy": 7335,
      "tour": 7336,
      "tourn": 7337,
      "toward": 7338,
      "towers": 7339,
      "tobac": 7340,
      "##ura": 7341,
      "##uric": 7342,
      "##uration": 7343,
      "##urys": 7344,
      "##uramo": 7345,
      "##itas": 7346,
      "##itect": 7347,
      "##itures": 7348,
      "##itting": 7349,
      "##itted": 7350,
      "##ilst": 7351,
      "andhra": 7352,
      "##omberg": 7353,
      "##ominated": 7354,
      "##asa": 7355,
      "##asy": 7356,
      "##asma": 7357,
      "##asanen": 7358,
      "##asury": 7359,
      "##iso": 7360,
      "##isl": 7361,
      "##ism": 7362,
      "##isations": 7363,
      "##isse": 7364,
      "##isyn": 7365,
      "##ctors": 7366,
      "##icom": 7367,
      "##icel": 7368,
      "##icond": 7369,
      "##elity": 7370,
      "##elve": 7371,
      "##elecom": 7372,
      "##elainen": 7373,
      "##elcom": 7374,
      "##eta": 7375,
      "##eth": 7376,
      "##eters": 7377,
      "##etch": 7378,
      "##etically": 7379,
      "##ented": 7380,
      "##entive": 7381,
      "##enture": 7382,
      "205": 7383,
      "207": 7384,
      "##sto": 7385,
      "##stock": 7386,
      "##stals": 7387,
      "##stein": 7388,
      "##rect": 7389,
      "##reement": 7390,
      "##revoc": 7391,
      "proth": 7392,
      "prohouse": 7393,
      "proof": 7394,
      "##illed": 7395,
      "##illance": 7396,
      "compare": 7397,
      "##idek": 7398,
      "##idates": 7399,
      "fork": 7400,
      "forum": 7401,
      "forever": 7402,
      "forese": 7403,
      "##util": 7404,
      "##utious": 7405,
      "##utral": 7406,
      "##utkim": 7407,
      "item": 7408,
      "itikka": 7409,
      "fined": 7410,
      "finding": 7411,
      "finished": 7412,
      "##olt": 7413,
      "##oli": 7414,
      "##olan": 7415,
      "##oline": 7416,
      "##ollo": 7417,
      "##olina": 7418,
      "##olester": 7419,
      "##olozh": 7420,
      "stx": 7421,
      "stan": 7422,
      "stad": 7423,
      "sterv": 7424,
      "stav": 7425,
      "stars": 7426,
      "stuck": 7427,
      "sterling": 7428,
      "iso": 7429,
      "##pers": 7430,
      "##perform": 7431,
      "onwards": 7432,
      "convin": 7433,
      "##une": 7434,
      "##unal": 7435,
      "beat": 7436,
      "##use": 7437,
      "##uska": 7438,
      "##iver": 7439,
      "##ivan": 7440,
      "##ival": 7441,
      "##ivak": 7442,
      "##ivstar": 7443,
      "sah": 7444,
      "sawn": 7445,
      "saved": 7446,
      "saa1v": 7447,
      "##irad": 7448,
      "##irja": 7449,
      "##andic": 7450,
      "##andri": 7451,
      "##andmarket": 7452,
      "##rome": 7453,
      "##roma": 7454,
      "##lew": 7455,
      "shut": 7456,
      "shad": 7457,
      "shim": 7458,
      "shell": 7459,
      "shade": 7460,
      "sharing": 7461,
      "shrank": 7462,
      "shenzh": 7463,
      "ask": 7464,
      "asx": 7465,
      "asim": 7466,
      "##osh": 7467,
      "##osby": 7468,
      "##osaari": 7469,
      "##thrit": 7470,
      "reb": 7471,
      "reim": 7472,
      "reject": 7473,
      "reve": 7474,
      "reward": 7475,
      "reference": 7476,
      "reijo": 7477,
      "rehabil": 7478,
      "##igs": 7479,
      "##igator": 7480,
      "##igible": 7481,
      "##igung": 7482,
      "##iglass": 7483,
      "##uls": 7484,
      "##uli": 7485,
      "##uling": 7486,
      "##ulation": 7487,
      "##ulding": 7488,
      "##ulics": 7489,
      "##ulative": 7490,
      "##chum": 7491,
      "##charg": 7492,
      "##chex": 7493,
      "##chester": 7494,
      "##chatow": 7495,
      "##estra": 7496,
      "##estions": 7497,
      "##estrian": 7498,
      "##iai": 7499,
      "##ado": 7500,
      "##adian": 7501,
      "##adele": 7502,
      "##ither": 7503,
      "exit": 7504,
      "exact": 7505,
      "exempt": 7506,
      "withdra": 7507,
      "perox": 7508,
      "permission": 7509,
      "pertti": 7510,
      "##uctor": 7511,
      "##ucted": 7512,
      "neutral": 7513,
      "##ppup": 7514,
      "##imir": 7515,
      "##imore": 7516,
      "alloy": 7517,
      "albat": 7518,
      "always": 7519,
      "sue": 7520,
      "suv": 7521,
      "suy1v": 7522,
      "suisse": 7523,
      "salonen": 7524,
      "incons": 7525,
      "inclus": 7526,
      "incurred": 7527,
      "incentive": 7528,
      "##otion": 7529,
      "##otine": 7530,
      "##otank": 7531,
      "##otely": 7532,
      "##otek": 7533,
      "##otted": 7534,
      "##rain": 7535,
      "##raulics": 7536,
      "mart": 7537,
      "marko": 7538,
      "marks": 7539,
      "enef": 7540,
      "encl": 7541,
      "encour": 7542,
      "whilst": 7543,
      "mag": 7544,
      "plx": 7545,
      "plaster": 7546,
      "plots": 7547,
      "##evision": 7548,
      "##evolozh": 7549,
      "groep": 7550,
      "##uard": 7551,
      "profiling": 7552,
      "##usta": 7553,
      "##uma": 7554,
      "##umcul": 7555,
      "##ocki": 7556,
      "##tsala": 7557,
      "co2": 7558,
      "coff": 7559,
      "coven": 7560,
      "cohen": 7561,
      "acid": 7562,
      "acac": 7563,
      "accept": 7564,
      "##aps": 7565,
      "##apest": 7566,
      "##apital": 7567,
      "contents": 7568,
      "predi": 7569,
      "priit": 7570,
      "prades": 7571,
      "priced": 7572,
      "##abin": 7573,
      "##abela": 7574,
      "##abasy": 7575,
      "newest": 7576,
      "newcom": 7577,
      "produk": 7578,
      "##ementioned": 7579,
      "chf": 7580,
      "chart": 7581,
      "chip": 7582,
      "chile": 7583,
      "chose": 7584,
      "chea": 7585,
      "cholester": 7586,
      "chrome": 7587,
      "##agues": 7588,
      "##agreement": 7589,
      "##lander": 7590,
      "##upe": 7591,
      "unib": 7592,
      "unbank": 7593,
      "unless": 7594,
      "unified": 7595,
      "unaud": 7596,
      "unicom": 7597,
      "uniglass": 7598,
      "##opist": 7599,
      "##avainen": 7600,
      "##avista": 7601,
      "##avigator": 7602,
      "2016": 7603,
      "2014": 7604,
      "2017": 7605,
      "manty": 7606,
      "manchester": 7607,
      "mantsala": 7608,
      "manavigator": 7609,
      "##acel": 7610,
      "##acle": 7611,
      "##acles": 7612,
      "correl": 7613,
      "usman": 7614,
      "servicing": 7615,
      "oral": 7616,
      "oras": 7617,
      "orhang": 7618,
      "##inea": 7619,
      "eucaly": 7620,
      "marketplaces": 7621,
      "euro3": 7622,
      "##elled": 7623,
      "##amn": 7624,
      "##amb": 7625,
      "##amas": 7626,
      "##amala": 7627,
      "##americ": 7628,
      "##istan": 7629,
      "##istent": 7630,
      "##istol": 7631,
      "##istical": 7632,
      "##istribut": 7633,
      "##antly": 7634,
      "##acteristics": 7635,
      "##allurg": 7636,
      "sep": 7637,
      "seik": 7638,
      "seina": 7639,
      "seems": 7640,
      "tried": 7641,
      "trends": 7642,
      "trh1v": 7643,
      "adm": 7644,
      "adams": 7645,
      "periods": 7646,
      "indic": 7647,
      "expo": 7648,
      "expire": 7649,
      "expensive": 7650,
      "expires": 7651,
      "exposure": 7652,
      "moor": 7653,
      "mouse": 7654,
      "##igned": 7655,
      "abloy": 7656,
      "ability": 7657,
      "abram": 7658,
      "age": 7659,
      "agro": 7660,
      "agents": 7661,
      "##outs": 7662,
      "##ansavi": 7663,
      "boat": 7664,
      "bofa": 7665,
      "boots": 7666,
      "bochum": 7667,
      "##akirja": 7668,
      "##riz": 7669,
      "##ried": 7670,
      "##riber": 7671,
      "##rification": 7672,
      "solely": 7673,
      "solvency": 7674,
      "solvay": 7675,
      "##echten": 7676,
      "deck": 7677,
      "decade": 7678,
      "decide": 7679,
      "decker": 7680,
      "decorative": 7681,
      "applying": 7682,
      "##angdong": 7683,
      "weigh": 7684,
      "buys": 7685,
      "buck": 7686,
      "##ptus": 7687,
      "accel": 7688,
      "accum": 7689,
      "accident": 7690,
      "accomp": 7691,
      "##lik": 7692,
      "##uga": 7693,
      "##ugal": 7694,
      "##uglas": 7695,
      "##ances": 7696,
      "##ancing": 7697,
      "partih": 7698,
      "partially": 7699,
      "amr": 7700,
      "amro": 7701,
      "amex": 7702,
      "ameas": 7703,
      "dean": 7704,
      "deger": 7705,
      "degree": 7706,
      "recip": 7707,
      "##itioning": 7708,
      "totaling": 7709,
      "spr": 7710,
      "spa": 7711,
      "spent": 7712,
      "spend": 7713,
      "spending": 7714,
      "spouts": 7715,
      "##ifically": 7716,
      "meant": 7717,
      "meals": 7718,
      "meo1v": 7719,
      "mezzan": 7720,
      "interm": 7721,
      "interact": 7722,
      "interview": 7723,
      "interiors": 7724,
      "anne": 7725,
      "contractor": 7726,
      "contractors": 7727,
      "##onds": 7728,
      "proves": 7729,
      "proved": 7730,
      "consent": 7731,
      "consisting": 7732,
      "consequ": 7733,
      "intens": 7734,
      "supposed": 7735,
      "supplement": 7736,
      "communal": 7737,
      "leases": 7738,
      "lewa": 7739,
      "lehdent": 7740,
      "television": 7741,
      "104": 7742,
      "101": 7743,
      "managers": 7744,
      "finances": 7745,
      "banked": 7746,
      "##ourg": 7747,
      "earn": 7748,
      "monster": 7749,
      "##ova": 7750,
      "##ovo": 7751,
      "rely": 7752,
      "##ology": 7753,
      "##ensively": 7754,
      "strips": 7755,
      "brisk": 7756,
      "bristol": 7757,
      "empt": 7758,
      "emphas": 7759,
      "nok1v": 7760,
      "technologically": 7761,
      "##ube": 7762,
      "metallurg": 7763,
      "signs": 7764,
      "signal": 7765,
      "signaling": 7766,
      "##ika": 7767,
      "##ikko": 7768,
      "paatela": 7769,
      "preced": 7770,
      "expecting": 7771,
      "systemhaus": 7772,
      "##owners": 7773,
      "valuation": 7774,
      "valmet": 7775,
      "valves": 7776,
      "valkama": 7777,
      "delist": 7778,
      "deleg": 7779,
      "rao": 7780,
      "##unds": 7781,
      "productional": 7782,
      "notably": 7783,
      "notification": 7784,
      "##ekapital": 7785,
      "swing": 7786,
      "swift": 7787,
      "swaps": 7788,
      "centers": 7789,
      "centric": 7790,
      "allure": 7791,
      "allotted": 7792,
      "projected": 7793,
      "projections": 7794,
      "##structures": 7795,
      "##iba": 7796,
      "companiesandmarket": 7797,
      "approvals": 7798,
      "128": 7799,
      "125": 7800,
      "129": 7801,
      "1200": 7802,
      "fee": 7803,
      "feel": 7804,
      "feet": 7805,
      "constructor": 7806,
      "##ermo": 7807,
      "156": 7808,
      "158": 7809,
      "equival": 7810,
      "election": 7811,
      "elections": 7812,
      "electrification": 7813,
      "clerical": 7814,
      "scra": 7815,
      "scene": 7816,
      "scf1v": 7817,
      "scandic": 7818,
      "190": 7819,
      "192": 7820,
      "191": 7821,
      "1930": 7822,
      "wellness": 7823,
      "oneworld": 7824,
      "capitals": 7825,
      "twe": 7826,
      "twist": 7827,
      "twenty": 7828,
      "twelve": 7829,
      "directional": 7830,
      "eur18": 7831,
      "eur1bn": 7832,
      "eur17m": 7833,
      "30s": 7834,
      "309": 7835,
      "307": 7836,
      "##ronic": 7837,
      "##ronics": 7838,
      "##ronage": 7839,
      "##ronsalmi": 7840,
      "##aterinburg": 7841,
      "110": 7842,
      "114": 7843,
      "115": 7844,
      "117": 7845,
      "moreover": 7846,
      "##urns": 7847,
      "acted": 7848,
      "actors": 7849,
      "regard": 7850,
      "regular": 7851,
      "regulatory": 7852,
      "termination": 7853,
      "terminated": 7854,
      "genesis": 7855,
      "genetically": 7856,
      "##uko": 7857,
      "mediter": 7858,
      "omeo": 7859,
      "worksh": 7860,
      "##venpa": 7861,
      "growhow": 7862,
      "desk": 7863,
      "despite": 7864,
      "146": 7865,
      "142": 7866,
      "141": 7867,
      "14mn": 7868,
      "retained": 7869,
      "retriev": 7870,
      "someone": 7871,
      "##print": 7872,
      "processed": 7873,
      "processgu": 7874,
      "##isco": 7875,
      "handles": 7876,
      "handheld": 7877,
      "##holma": 7878,
      "newswire": 7879,
      "newsprint": 7880,
      "canal": 7881,
      "canadian": 7882,
      "##arked": 7883,
      "##engy": 7884,
      "usd3": 7885,
      "usd2": 7886,
      "dealer": 7887,
      "138": 7888,
      "139": 7889,
      "137": 7890,
      "##axon": 7891,
      "autotank": 7892,
      "johan": 7893,
      "jouko": 7894,
      "peat": 7895,
      "peigs": 7896,
      "lamp": 7897,
      "laine": 7898,
      "laht": 7899,
      "laasanen": 7900,
      "laavainen": 7901,
      "trace": 7902,
      "carl": 7903,
      "carries": 7904,
      "carria": 7905,
      "carroll": 7906,
      "carolina": 7907,
      "holmen": 7908,
      "really": 7909,
      "headed": 7910,
      "headcount": 7911,
      "##iteollisu": 7912,
      "storms": 7913,
      "storengy": 7914,
      "leads": 7915,
      "##weight": 7916,
      "assa": 7917,
      "assur": 7918,
      "assess": 7919,
      "arto": 7920,
      "arcel": 7921,
      "argent": 7922,
      "arthrit": 7923,
      "currencies": 7924,
      "164": 7925,
      "168": 7926,
      "165": 7927,
      "162": 7928,
      "161": 7929,
      "crush": 7930,
      "loose": 7931,
      "globe": 7932,
      "elements": 7933,
      "eligible": 7934,
      "effort": 7935,
      "efforts": 7936,
      "frn": 7937,
      "fray": 7938,
      "franch": 7939,
      "remotely": 7940,
      "completes": 7941,
      "completely": 7942,
      "beta": 7943,
      "beteil": 7944,
      "facades": 7945,
      "facilit": 7946,
      "issuing": 7947,
      "##teen": 7948,
      "186": 7949,
      "188": 7950,
      "189": 7951,
      "187": 7952,
      "noop": 7953,
      "perspect": 7954,
      "optical": 7955,
      "redistribut": 7956,
      "##eneurs": 7957,
      "steers": 7958,
      "stead": 7959,
      "stefan": 7960,
      "basf": 7961,
      "bas1v": 7962,
      "##uden": 7963,
      "##udun": 7964,
      "##achi": 7965,
      "##ostus": 7966,
      "##altic": 7967,
      "amounting": 7968,
      "doing": 7969,
      "doctors": 7970,
      "douglas": 7971,
      "throughput": 7972,
      "releases": 7973,
      "kausta": 7974,
      "##kswagen": 7975,
      "engineered": 7976,
      "modes": 7977,
      "vauramo": 7978,
      "vaasa": 7979,
      "##uces": 7980,
      "flor": 7981,
      "fluct": 7982,
      "smelt": 7983,
      "smooth": 7984,
      "##eye": 7985,
      "##arsaari": 7986,
      "subscriber": 7987,
      "fulfil": 7988,
      "##vedere": 7989,
      "applicant": 7990,
      "applicable": 7991,
      "discip": 7992,
      "lats": 7993,
      "lat1v": 7994,
      "telecomworld": 7995,
      "telecominvest": 7996,
      "talking": 7997,
      "talermo": 7998,
      "grc": 7999,
      "gran": 8000,
      "gray": 8001,
      "grupe": 8002,
      "avc": 8003,
      "purpos": 8004,
      "purpose": 8005,
      "portable": 8006,
      "portugal": 8007,
      "##grid": 8008,
      "extending": 8009,
      "extensively": 8010,
      "negotiation": 8011,
      "235": 8012,
      "210": 8013,
      "213": 8014,
      "215": 8015,
      "casual": 8016,
      "volkswagen": 8017,
      "compete": 8018,
      "competing": 8019,
      "competitor": 8020,
      "reportedly": 8021,
      "greater": 8022,
      "##laim": 8023,
      "depart": 8024,
      "401": 8025,
      "capacities": 8026,
      "246": 8027,
      "244": 8028,
      "249": 8029,
      "brokers": 8030,
      "specialized": 8031,
      "baltimore": 8032,
      "sanitation": 8033,
      "292": 8034,
      "tyo": 8035,
      "minim": 8036,
      "eur22": 8037,
      "eur27m": 8038,
      "forming": 8039,
      "formation": 8040,
      "activation": 8041,
      "activating": 8042,
      "activate": 8043,
      "activision": 8044,
      "260": 8045,
      "262": 8046,
      "driver": 8047,
      "funded": 8048,
      "opus": 8049,
      "opens": 8050,
      "petroch": 8051,
      "sitra": 8052,
      "225": 8053,
      "229": 8054,
      "detect": 8055,
      "detection": 8056,
      "detroit": 8057,
      "digicel": 8058,
      "goes": 8059,
      "goals": 8060,
      "goodyear": 8061,
      "path": 8062,
      "patch": 8063,
      "patja": 8064,
      "patronage": 8065,
      "##iskangas": 8066,
      "focuses": 8067,
      "city24": 8068,
      "poles": 8069,
      "police": 8070,
      "##phuric": 8071,
      "trades": 8072,
      "lowering": 8073,
      "royalt": 8074,
      "enters": 8075,
      "rautalinko": 8076,
      "rautakirja": 8077,
      "purchasing": 8078,
      "belarus": 8079,
      "belchatow": 8080,
      "belvedere": 8081,
      "inside": 8082,
      "forests": 8083,
      "forestal": 8084,
      "saving": 8085,
      "northland": 8086,
      "northwestern": 8087,
      "northwest": 8088,
      "275": 8089,
      "ebg1v": 8090,
      "liisa": 8091,
      "lippup": 8092,
      "liechten": 8093,
      "teollisu": 8094,
      "entities": 8095,
      "interests": 8096,
      "posting": 8097,
      "310": 8098,
      "knows": 8099,
      "mats": 8100,
      "mature": 8101,
      "matrix": 8102,
      "sets": 8103,
      "setting": 8104,
      "exciting": 8105,
      "cooperate": 8106,
      "strengths": 8107,
      "availability": 8108,
      "logical": 8109,
      "logging": 8110,
      "restart": 8111,
      "votorant": 8112,
      "##istered": 8113,
      "kyivstar": 8114,
      "kyronsalmi": 8115,
      "thereby": 8116,
      "eur35": 8117,
      "eur39m": 8118,
      "eur33m": 8119,
      "maintains": 8120,
      "disclosing": 8121,
      "ukmerg": 8122,
      "ukonaho": 8123,
      "##ecutor": 8124,
      "strongest": 8125,
      "strongly": 8126,
      "generally": 8127,
      "emir": 8128,
      "emission": 8129,
      "suburb": 8130,
      "364": 8131,
      "365": 8132,
      "parnu": 8133,
      "parlia": 8134,
      "pulse": 8135,
      "package": 8136,
      "packages": 8137,
      "rap1v": 8138,
      "takanen": 8139,
      "positioning": 8140,
      "280": 8141,
      "803": 8142,
      "blast": 8143,
      "gerber": 8144,
      "effects": 8145,
      "effected": 8146,
      "creation": 8147,
      "listing": 8148,
      "eur45m": 8149,
      "eur46m": 8150,
      "eur416": 8151,
      "eur400m": 8152,
      "scania": 8153,
      "scanning": 8154,
      "automated": 8155,
      "457": 8156,
      "##icker": 8157,
      "experi": 8158,
      "chains": 8159,
      "quad": 8160,
      "questions": 8161,
      "turb": 8162,
      "turning": 8163,
      "viable": 8164,
      "##dsl": 8165,
      "centralized": 8166,
      "380": 8167,
      "383": 8168,
      "ideas": 8169,
      "veidek": 8170,
      "##rowave": 8171,
      "eur55": 8172,
      "eur500": 8173,
      "bnameric": 8174,
      "keyboard": 8175,
      "keylog": 8176,
      "keyword": 8177,
      "simons": 8178,
      "simmons": 8179,
      "accountant": 8180,
      "sanomawso": 8181,
      "pohjolan": 8182,
      "evp": 8183,
      "evident": 8184,
      "evraz": 8185,
      "played": 8186,
      "002": 8187,
      "panels": 8188,
      "trees": 8189,
      "treasury": 8190,
      "tonne": 8191,
      "antti": 8192,
      "antwer": 8193,
      "antenn": 8194,
      "platinum": 8195,
      "offerings": 8196,
      "presentations": 8197,
      "membership": 8198,
      "responsibilities": 8199,
      "329": 8200,
      "biobv": 8201,
      "backed": 8202,
      "backlog": 8203,
      "cold": 8204,
      "columb": 8205,
      "parking": 8206,
      "parkano": 8207,
      "southwestern": 8208,
      "governance": 8209,
      "430": 8210,
      "##kero": 8211,
      "toolonlahti": 8212,
      "reaching": 8213,
      "attribut": 8214,
      "privat": 8215,
      "privately": 8216,
      "indexes": 8217,
      "authorization": 8218,
      "authorisation": 8219,
      "bestseller": 8220,
      "callers": 8221,
      "homeware": 8222,
      "homeowners": 8223,
      "multirad": 8224,
      "surroun": 8225,
      "##comes": 8226,
      "##coming": 8227,
      "eur64": 8228,
      "eur63": 8229,
      "shooting": 8230,
      "requires": 8231,
      "advance": 8232,
      "advise": 8233,
      "566": 8234,
      "fuelled": 8235,
      "geomet": 8236,
      "gasoline": 8237,
      "teks": 8238,
      "innofactor": 8239,
      "administered": 8240,
      "397": 8241,
      "495": 8242,
      "apollo": 8243,
      "button": 8244,
      "dropping": 8245,
      "tec1v": 8246,
      "462": 8247,
      "473": 8248,
      "erp": 8249,
      "erden": 8250,
      "falling": 8251,
      "fallers": 8252,
      "licence": 8253,
      "licenses": 8254,
      "nyrstar": 8255,
      "tenants": 8256,
      "##fully": 8257,
      "superstructures": 8258,
      "bridgest": 8259,
      "participating": 8260,
      "platforms": 8261,
      "innovations": 8262,
      "benefit": 8263,
      "901": 8264,
      "files": 8265,
      "flexibly": 8266,
      "ways": 8267,
      "##itutes": 8268,
      "converter": 8269,
      "convergence": 8270,
      "meats": 8271,
      "improves": 8272,
      "improving": 8273,
      "treatments": 8274,
      "556": 8275,
      "576": 8276,
      "575": 8277,
      "579": 8278,
      "513": 8279,
      "bread": 8280,
      "skr": 8281,
      "skat": 8282,
      "skis": 8283,
      "skandinav": 8284,
      "winner": 8285,
      "##efene": 8286,
      "##annel": 8287,
      "##annus": 8288,
      "technopark": 8289,
      "technoparks": 8290,
      "1996": 8291,
      "1995": 8292,
      "narrows": 8293,
      "414": 8294,
      "538": 8295,
      "53mn": 8296,
      "harbor": 8297,
      "ilmar": 8298,
      "ilk2": 8299,
      "nnge": 8300,
      "altia": 8301,
      "altona": 8302,
      "300mn": 8303,
      "659": 8304,
      "denominated": 8305,
      "gained": 8306,
      "runway": 8307,
      "routing": 8308,
      "silver": 8309,
      "visual": 8310,
      "vacc": 8311,
      "wirsam": 8312,
      "##amps": 8313,
      "impacted": 8314,
      "fewer": 8315,
      "streams": 8316,
      "streaming": 8317,
      "liquids": 8318,
      "liquidated": 8319,
      "barc": 8320,
      "guinea": 8321,
      "guangdong": 8322,
      "honored": 8323,
      "topical": 8324,
      "promoting": 8325,
      "promotion": 8326,
      "eur75m": 8327,
      "forwards": 8328,
      "studies": 8329,
      "students": 8330,
      "studying": 8331,
      "involving": 8332,
      "commissioning": 8333,
      "bioheap": 8334,
      "adjusting": 8335,
      "529": 8336,
      "bidding": 8337,
      "dilution": 8338,
      "everest": 8339,
      "microwave": 8340,
      "radar": 8341,
      "##joen": 8342,
      "##inner": 8343,
      "stopped": 8344,
      "stoxx": 8345,
      "confir": 8346,
      "config": 8347,
      "confident": 8348,
      "confidence": 8349,
      "weaker": 8350,
      "weakened": 8351,
      "introduction": 8352,
      "introducing": 8353,
      "artem": 8354,
      "670": 8355,
      "grapev": 8356,
      "hoyer": 8357,
      "hitting": 8358,
      "karh": 8359,
      "karvinen": 8360,
      "limits": 8361,
      "tape": 8362,
      "tapio": 8363,
      "tapiola": 8364,
      "wait": 8365,
      "wastewater": 8366,
      "african": 8367,
      "classic": 8368,
      "vehvil": 8369,
      "640": 8370,
      "645": 8371,
      "686": 8372,
      "687": 8373,
      "614": 8374,
      "885": 8375,
      "853": 8376,
      "edge": 8377,
      "edging": 8378,
      "edita": 8379,
      "mikkonen": 8380,
      "actually": 8381,
      "republication": 8382,
      "063": 8383,
      "084": 8384,
      "diapol": 8385,
      "freight": 8386,
      "freenet": 8387,
      "float": 8388,
      "framing": 8389,
      "populated": 8390,
      "population": 8391,
      "renesas": 8392,
      "thomas": 8393,
      "separately": 8394,
      "explore": 8395,
      "exploration": 8396,
      "eur15m": 8397,
      "585": 8398,
      "5800": 8399,
      "630": 8400,
      "audi": 8401,
      "auditors": 8402,
      "bulk": 8403,
      "bullying": 8404,
      "cellular": 8405,
      "duty": 8406,
      "evening": 8407,
      "irish": 8408,
      "irrevoc": 8409,
      "malware": 8410,
      "victor": 8411,
      "welding": 8412,
      "welcomes": 8413,
      "warehous": 8414,
      "oriental": 8415,
      "oriented": 8416,
      "branches": 8417,
      "feedstock": 8418,
      "kaupun": 8419,
      "modernization": 8420,
      "identification": 8421,
      "665": 8422,
      "763": 8423,
      "736": 8424,
      "7327": 8425,
      "890": 8426,
      "8171": 8427,
      "gaming": 8428,
      "merrill": 8429,
      "utenos": 8430,
      "views": 8431,
      "viewing": 8432,
      "westpac": 8433,
      "##generation": 8434,
      "seppo": 8435,
      "defin": 8436,
      "happened": 8437,
      "brewers": 8438,
      "sheets": 8439,
      "825": 8440,
      "829": 8441,
      "born": 8442,
      "borl": 8443,
      "border": 8444,
      "citadele": 8445,
      "categories": 8446,
      "friends": 8447,
      "pcb": 8448,
      "possibly": 8449,
      "sentry": 8450,
      "##uppa": 8451,
      "eur928": 8452,
      "##imaki": 8453,
      "intellisyn": 8454,
      "approaches": 8455,
      "features": 8456,
      "typically": 8457,
      "formerly": 8458,
      "substations": 8459,
      "surfing": 8460,
      "surface": 8461,
      "949": 8462,
      "cableway": 8463,
      "ftth": 8464,
      "kaleva": 8465,
      "kaluga": 8466,
      "palmberg": 8467,
      "snap": 8468,
      "snacks": 8469,
      "svp": 8470,
      "svyt": 8471,
      "walter": 8472,
      "commented": 8473,
      "characteristics": 8474,
      "specific": 8475,
      "specifically": 8476,
      "eur12m": 8477,
      "eur125": 8478,
      "tracking": 8479,
      "mineral": 8480,
      "calcination": 8481,
      "calculates": 8482,
      "hydraulics": 8483,
      "syndicate": 8484,
      "speeds": 8485,
      "speeded": 8486,
      "motorcyc": 8487,
      "municipality": 8488,
      "bavaria": 8489,
      "camera": 8490,
      "durham": 8491,
      "frost": 8492,
      "fitch": 8493,
      "kept": 8494,
      "linking": 8495,
      "n78": 8496,
      "piece": 8497,
      "veracel": 8498,
      "virala": 8499,
      "variant": 8500,
      "##liner": 8501,
      "behav": 8502,
      "##uskiai": 8503,
      "enhanced": 8504,
      "plastics": 8505,
      "priority": 8506,
      "invoicing": 8507,
      "recovered": 8508,
      "relocated": 8509,
      "repeats": 8510,
      "regionally": 8511,
      "blackstone": 8512,
      "blackberry": 8513,
      "certainly": 8514,
      "guides": 8515,
      "spokesman": 8516,
      "permanently": 8517,
      "individuals": 8518,
      "691": 8519,
      "985": 8520,
      "e65": 8521,
      "e61": 8522,
      "lule": 8523,
      "lassi": 8524,
      "mastercard": 8525,
      "trouble": 8526,
      "trojan": 8527,
      "tailored": 8528,
      "voip": 8529,
      "##urbed": 8530,
      "eur86": 8531,
      "eur80m": 8532,
      "whitehall": 8533,
      "resolution": 8534,
      "interfaces": 8535,
      "outsource": 8536,
      "prepared": 8537,
      "replace": 8538,
      "replaced": 8539,
      "replacement": 8540,
      "foodservice": 8541,
      "reflected": 8542,
      "colleagues": 8543,
      "favourably": 8544,
      "bottles": 8545,
      "railways": 8546,
      "substantially": 8547,
      "780": 8548,
      "burning": 8549,
      "deducted": 8550,
      "dragged": 8551,
      "dokumcul": 8552,
      "e72": 8553,
      "e71": 8554,
      "heart": 8555,
      "hearing": 8556,
      "kito": 8557,
      "kallio": 8558,
      "molec": 8559,
      "rolling": 8560,
      "sunrise": 8561,
      "sizing": 8562,
      "##worth": 8563,
      "inaugural": 8564,
      "##atoid": 8565,
      "##atoostus": 8566,
      "proceeded": 8567,
      "truck": 8568,
      "expressly": 8569,
      "boosting": 8570,
      "heavily": 8571,
      "megaw": 8572,
      "tele2": 8573,
      "climate": 8574,
      "1987": 8575,
      "architect": 8576,
      "critic": 8577,
      "kauno": 8578,
      "kaunas": 8579,
      "kauniskangas": 8580,
      "cleaning": 8581,
      "clientele": 8582,
      "surveillance": 8583,
      "geographic": 8584,
      "favorable": 8585,
      "sawmills": 8586,
      "demonstrations": 8587,
      "hydrogen": 8588,
      "hydrocar": 8589,
      "originally": 8590,
      "recruited": 8591,
      "recruitment": 8592,
      "bakery": 8593,
      "cdp": 8594,
      "cdli": 8595,
      "cautious": 8596,
      "coscom": 8597,
      "easy": 8598,
      "michelin": 8599,
      "n95": 8600,
      "pounds": 8601,
      "rsa": 8602,
      "rs3": 8603,
      "semicond": 8604,
      "sporting": 8605,
      "tablet": 8606,
      "tablets": 8607,
      "##obi": 8608,
      "##4900": 8609,
      "inspection": 8610,
      "##energosby": 8611,
      "ansa": 8612,
      "problem": 8613,
      "finishing": 8614,
      "starts": 8615,
      "##embourg": 8616,
      "suffering": 8617,
      "residues": 8618,
      "sealed": 8619,
      "seeking": 8620,
      "expenditures": 8621,
      "terminate": 8622,
      "terminals": 8623,
      "airbaltic": 8624,
      "lihir": 8625,
      "lihak": 8626,
      "lihatoostus": 8627,
      "entitled": 8628,
      "entitlement": 8629,
      "skogster": 8630,
      "renovate": 8631,
      "merchand": 8632,
      "kilometers": 8633,
      "occupied": 8634,
      "territories": 8635,
      "campaigns": 8636,
      "bands": 8637,
      "cnl": 8638,
      "dinh": 8639,
      "donations": 8640,
      "dubna": 8641,
      "dubai": 8642,
      "egm": 8643,
      "eaton": 8644,
      "hoped": 8645,
      "ipad": 8646,
      "jarvenpa": 8647,
      "kiruna": 8648,
      "koskinen": 8649,
      "koskull": 8650,
      "libraries": 8651,
      "mortar": 8652,
      "owning": 8653,
      "pellet": 8654,
      "rentals": 8655,
      "ranges": 8656,
      "ranging": 8657,
      "rosenlew": 8658,
      "tanker": 8659,
      "vuosaari": 8660,
      "##eumatoid": 8661,
      "##32m": 8662,
      "complements": 8663,
      "maritim": 8664,
      "maxis": 8665,
      "chamber": 8666,
      "chambers": 8667,
      "christmas": 8668,
      "trygvesta": 8669,
      "trials": 8670,
      "adopting": 8671,
      "budapest": 8672,
      "investigators": 8673,
      "norsun": 8674,
      "sponsors": 8675,
      "sponsoring": 8676,
      "1023": 8677,
      "reliability": 8678,
      "diversify": 8679,
      "19447": 8680,
      "eur160m": 8681,
      "holidays": 8682,
      "assumption": 8683,
      "discontinued": 8684,
      "shareholdings": 8685,
      "drugs": 8686,
      "entreprenad": 8687,
      "entrepreneurs": 8688,
      "excellent": 8689,
      "excellence": 8690,
      "warrants": 8691,
      "collective": 8692,
      "selections": 8693,
      "california": 8694,
      "succeeded": 8695,
      "copyright": 8696,
      "relationships": 8697,
      "jpmorgan": 8698,
      "ceramics": 8699,
      "journey": 8700,
      "disappear": 8701,
      "slaughtering": 8702,
      "awareness": 8703,
      "bahia": 8704,
      "celular": 8705,
      "ciders": 8706,
      "cabin": 8707,
      "cabot": 8708,
      "drying": 8709,
      "ecb": 8710,
      "eye": 8711,
      "eyes": 8712,
      "galvan": 8713,
      "hansen": 8714,
      "judge": 8715,
      "judgement": 8716,
      "kolk": 8717,
      "kronor": 8718,
      "kostroma": 8719,
      "kraftliner": 8720,
      "lidsko": 8721,
      "lundmark": 8722,
      "mirabela": 8723,
      "miracle": 8724,
      "odell": 8725,
      "ostro": 8726,
      "ostrava": 8727,
      "papua": 8728,
      "rfc": 8729,
      "rheumatoid": 8730,
      "roundtable": 8731,
      "suspect": 8732,
      "tanzan": 8733,
      "tube": 8734,
      "tubes": 8735,
      "waterm": 8736,
      "##ormittal": 8737,
      "prosecutor": 8738,
      "progressed": 8739,
      "style": 8740,
      "stabilised": 8741,
      "constantly": 8742,
      "sabah": 8743,
      "saarelainen": 8744,
      "sharply": 8745,
      "reinfor": 8746,
      "rebuild": 8747,
      "atomic": 8748,
      "unveil": 8749,
      "adequate": 8750,
      "adequacy": 8751,
      "exploits": 8752,
      "capture": 8753,
      "amendment": 8754,
      "amendments": 8755,
      "legal": 8756,
      "industriekapital": 8757,
      "phosphate": 8758,
      "allocation": 8759,
      "allocated": 8760,
      "scotts": 8761,
      "highlight": 8762,
      "highlights": 8763,
      "repayment": 8764,
      "trailer": 8765,
      "distinctive": 8766,
      "issuer": 8767,
      "issuance": 8768,
      "smithfield": 8769,
      "opinion": 8770,
      "opinions": 8771,
      "believe": 8772,
      "believes": 8773,
      "literature": 8774,
      "entirely": 8775,
      "entirety": 8776,
      "slowed": 8777,
      "evaluation": 8778,
      "evaluated": 8779,
      "shipyard": 8780,
      "shipyards": 8781,
      "uruguayan": 8782,
      "myllykoski": 8783,
      "advertisements": 8784,
      "collaboration": 8785,
      "pietarsaari": 8786,
      "luxury": 8787,
      "luxembourg": 8788,
      "tuomas": 8789,
      "fabrication": 8790,
      "magnetite": 8791,
      "kalnapilis": 8792,
      "kalnapilio": 8793,
      "a350": 8794,
      "bosch": 8795,
      "bodies": 8796,
      "bloomberg": 8797,
      "crystals": 8798,
      "dvd": 8799,
      "destia": 8800,
      "dimensions": 8801,
      "dissol": 8802,
      "eli1v": 8803,
      "ghz": 8804,
      "gunpoint": 8805,
      "jorma": 8806,
      "jensen": 8807,
      "kidna": 8808,
      "kra1v": 8809,
      "kansas": 8810,
      "lesprom": 8811,
      "lenenergo": 8812,
      "lasse": 8813,
      "lumene": 8814,
      "loviisa": 8815,
      "liability": 8816,
      "lynch": 8817,
      "nielsen": 8818,
      "nkel": 8819,
      "nitr": 8820,
      "pedestrian": 8821,
      "pivo": 8822,
      "pankki": 8823,
      "peltonen": 8824,
      "ryobi": 8825,
      "rpk": 8826,
      "ropax": 8827,
      "rubber": 8828,
      "rostelecom": 8829,
      "sodra": 8830,
      "sveza": 8831,
      "tauro": 8832,
      "tumkur": 8833,
      "tornio": 8834,
      "vtm": 8835,
      "velta": 8836,
      "write": 8837,
      "##dren": 8838,
      "##listed": 8839,
      "inception": 8840,
      "tolerated": 8841,
      "proteins": 8842,
      "prolongation": 8843,
      "israel": 8844,
      "conferences": 8845,
      "williams": 8846,
      "shelters": 8847,
      "ashley": 8848,
      "reiterated": 8849,
      "examining": 8850,
      "neighbor": 8851,
      "alpina": 8852,
      "##otyp": 8853,
      "cooling": 8854,
      "contrast": 8855,
      "children": 8856,
      "cheapest": 8857,
      "ordabasy": 8858,
      "adaptation": 8859,
      "boomeranger": 8860,
      "debenture": 8861,
      "sparebank": 8862,
      "interconnection": 8863,
      "helsingin": 8864,
      "struggling": 8865,
      "brasil": 8866,
      "meteorology": 8867,
      "prepare": 8868,
      "impressive": 8869,
      "closely": 8870,
      "overlaid": 8871,
      "undertak": 8872,
      "workflow": 8873,
      "retirement": 8874,
      "francisco": 8875,
      "basketball": 8876,
      "1744900": 8877,
      "avesta": 8878,
      "lifetree": 8879,
      "patricia": 8880,
      "robust": 8881,
      "roughly": 8882,
      "savonlinna": 8883,
      "lietuva": 8884,
      "settlement": 8885,
      "restrictions": 8886,
      "slashed": 8887,
      "respondents": 8888,
      "shipbuilder": 8889,
      "administrators": 8890,
      "filmiteollisu": 8891,
      "illust": 8892,
      "article": 8893,
      "bulletin": 8894,
      "wholesaler": 8895,
      "inflation": 8896,
      "seminar": 8897,
      "languages": 8898,
      "mortgage": 8899,
      "pharmacokinetic": 8900,
      "simplify": 8901,
      "journalistic": 8902,
      "disappointment": 8903,
      "comfortably": 8904,
      "kauhajoki": 8905,
      "refurbishment": 8906,
      "aleksandri": 8907,
      "hospitals": 8908,
      "vladimir": 8909,
      "vimpelcom": 8910,
      "##uokraamo": 8911,
      "coagulant": 8912,
      "accommodate": 8913,
      "polytechnics": 8914,
      "aforementioned": 8915,
      "astana": 8916,
      "bbh": 8917,
      "bentos": 8918,
      "blyk": 8919,
      "buster": 8920,
      "bosse": 8921,
      "bjorn": 8922,
      "bernhard": 8923,
      "bathroom": 8924,
      "candidates": 8925,
      "cessation": 8926,
      "catering": 8927,
      "cerner": 8928,
      "celebr": 8929,
      "caverion": 8930,
      "dnb": 8931,
      "dwt": 8932,
      "dishes": 8933,
      "dagens": 8934,
      "dioxide": 8935,
      "dibba": 8936,
      "dairy": 8937,
      "eronen": 8938,
      "fidelity": 8939,
      "fia1s": 8940,
      "fluid": 8941,
      "fixing": 8942,
      "gbx": 8943,
      "golden": 8944,
      "gantry": 8945,
      "gprs": 8946,
      "hbos": 8947,
      "hanna": 8948,
      "hunting": 8949,
      "husqvar": 8950,
      "hockey": 8951,
      "hundred": 8952,
      "ietf": 8953,
      "iconic": 8954,
      "iceland": 8955,
      "jordan": 8956,
      "kevin": 8957,
      "kustannus": 8958,
      "krippl": 8959,
      "kermansavi": 8960,
      "ladle": 8961,
      "lodged": 8962,
      "leningrad": 8963,
      "mformation": 8964,
      "mercator": 8965,
      "mertano": 8966,
      "nicotine": 8967,
      "niam": 8968,
      "ntsb": 8969,
      "nalmefene": 8970,
      "nederland": 8971,
      "ote1v": 8972,
      "pesonen": 8973,
      "porvoo": 8974,
      "pakistan": 8975,
      "qingyuan": 8976,
      "rbff": 8977,
      "roger": 8978,
      "rinkuskiai": 8979,
      "rakennusk": 8980,
      "rocketed": 8981,
      "sdm": 8982,
      "somaxon": 8983,
      "sulphuric": 8984,
      "sotkamo": 8985,
      "sastamala": 8986,
      "sda1v": 8987,
      "sludge": 8988,
      "tinyur": 8989,
      "tauras": 8990,
      "tlsn": 8991,
      "umts": 8992,
      "umbrell": 8993,
      "vsevolozh": 8994,
      "vicinity": 8995,
      "vartan": 8996,
      "varesvuo": 8997,
      "vologda": 8998,
      "vianor": 8999,
      "videos": 9000,
      "viii": 9001,
      "wimax": 9002,
      "wysocki": 9003,
      "warsaw": 9004,
      "westerlund": 9005,
      "young": 9006,
      "youtube": 9007,
      "yliopist": 9008,
      "yahoo": 9009,
      "yty1v": 9010,
      "£lemiste": 9011,
      "##ekijat": 9012,
      "##rusion": 9013,
      "##ranean": 9014,
      "##bindelsen": 9015,
      "##bursed": 9016,
      "##jonki": 9017,
      "thermal": 9018,
      "##onevuokraamo": 9019,
      "injection": 9020,
      "ingredi": 9021,
      "inorganic": 9022,
      "anglers": 9023,
      "tobacco": 9024,
      "prothious": 9025,
      "foresees": 9026,
      "convinced": 9027,
      "shimano": 9028,
      "shenzhen": 9029,
      "asimilar": 9030,
      "reimbursed": 9031,
      "rejected": 9032,
      "revealed": 9033,
      "##igungs": 9034,
      "exactly": 9035,
      "peroxide": 9036,
      "inconsistent": 9037,
      "inclusion": 9038,
      "enefit": 9039,
      "enclosed": 9040,
      "encourage": 9041,
      "plasterboard": 9042,
      "coffee": 9043,
      "covenants": 9044,
      "acacia": 9045,
      "predict": 9046,
      "pradesh": 9047,
      "produkt": 9048,
      "cheaper": 9049,
      "cholesterol": 9050,
      "unibrew": 9051,
      "unbanked": 9052,
      "unaudited": 9053,
      "correlation": 9054,
      "usmanov": 9055,
      "orhangazi": 9056,
      "eucalyptus": 9057,
      "seikku": 9058,
      "seinajoki": 9059,
      "abramov": 9060,
      "accomplish": 9061,
      "partihalls": 9062,
      "degerfors": 9063,
      "mezzanine": 9064,
      "consequence": 9065,
      "lehdentekijat": 9066,
      "metallurgical": 9067,
      "delegation": 9068,
      "companiesandmarkets": 9069,
      "1930s": 9070,
[...]
