[PAD]
[UNK]
[CLS]
[SEP]
[MASK]
!
$
%
&
'
(
)
+
,
-
.
/
0
1
2
3
4
5
6
7
8
9
:
;
=
?
`
a
b
c
d
e
f
g
h
i
j
k
l
m
n
o
p
q
r
s
t
u
v
w
x
y
z
£
¦
«
¬
®
¼
##u
##t
##s
##i
##d
##e
##6
##0
##r
##f
##c
##a
##o
##n
##v
##b
##l
##4
##3
##8
##m
##y
##5
##p
##h
##k
##g
##2
##9
##x
##7
##1
##w
##z
##q
##j
##er
th
##in
the
##on
##es
##an
in
##or
##ar
##ed
##en
##at
##ro
##al
of
an
##ing
##ion
to
##ur
##it
##il
and
##om
##as
##is
##ct
##ic
##el
##et
##ent
com
20
##st
##re
pro
##ill
comp
eur
##id
for
200
##ec
##ation
##ut
it
fin
##ol
st
##em
is
compan
##per
on
con
##un
be
##us
##ter
##iv
sa
will
company
##ir
##and
##ers
##rom
from
##ish
##le
sh
as
##os
##th
re
##ig
##ul
##ch
##est
##ia
##ad
##ay
its
##ess
##ith
##ow
ex
##ment
with
per
##ly
##uct
ne
has
##pp
##im
oper
al
finn
##od
##ce
##ect
by
su
##ding
sal
said
at
net
inc
##ot
##ra
##ies
finnish
mar
##ear
en
mn
##por
##illion
##are
wh
ma
pl
##ev
gro
##uar
prof
sales
year
million
##ust
##um
##oc
that
profit
##ial
##ity
##ts
co
##00
ac
##erv
##ap
cont
pr
was
##ab
new
##ating
prod
##ement
ch
##art
are
serv
##ag
##land
##qu
##up
un
##ber
##ate
##op
##av
##ased
201
man
##ations
##ket
##ac
finland
cor
us
##mp
servic
or
##ine
hel
oy
##lo
##ki
eu
market
group
product
euro
##so
##ip
##ver
##ell
##ok
##uarter
##am
##ated
##ions
##ist
##ant
2009
share
##act
##ln
##all
operating
up
2008
bus
##ive
res
##iness
##ue
mln
business
##ain
inv
se
##oun
##igh
tr
##iod
##der
##ase
ad
dev
quarter
period
##day
ind
##ard
exp
mo
##ore
2007
##ign
off
ab
ag
##out
##og
##ans
tot
2010
bo
##ast
##ff
##ak
##ich
##ave
##ri
##arg
##ile
##lu
oyj
sol
cap
fir
##ech
dec
incre
app
##ang
we
##ank
##ice
##ther
also
000
bu
##res
services
invest
nor
which
have
##ork
##port
##ere
##ure
##pt
acc
##io
##ruct
##li
##ug
##anc
devel
part
##ors
##ares
am
##ract
est
de
he
rec
tech
shares
##ry
##ance
##ition
first
##ire
inclu
total
sp
techn
this
##if
2006
##ose
##ail
me
inter
sy
out
ann
contract
##ond
##ome
prov
##able
develop
##ember
##ult
##ock
##oss
##ical
cons
sec
hels
solut
##bs
int
supp
##inki
helsinki
comm
le
tel
been
10
compar
manag
mak
##ual
financ
provid
bank
##our
##end
agre
ear
mon
##ov
indust
rel
##man
##olog
loss
##ning
##loy
##ens
str
br
acqu
##fact
corpor
##ong
##ely
buil
emp
##ufact
manufact
nok
##int
unit
about
technolog
cust
##ub
##for
##pon
stock
po
##ood
##uring
custom
today
operations
compared
##ian
mob
ph
##ject
employ
met
sign
##cent
##ital
##ik
##ort
##stem
##uss
pa
pre
trans
expect
system
af
ele
##wn
financial
nokia
##one
##own
##uary
mobile
val
##ware
report
del
accor
ra
##ary
##und
production
##ange
investment
based
percent
##form
not
##ek
sw
cent
products
##ery
corporation
corres
all
includ
russ
project
subs
##lier
##struct
agreement
according
other
so
were
##ib
companies
##ates
##ugh
imp
own
##eo
##ft
##ced
appro
technology
12
fe
##ponding
corresponding
##cess
##ics
construct
plant
add
##erm
than
service
15
equ
##se
solutions
month
elect
deliv
cl
div
our
sc
##iz
##ility
##uld
##ace
##1v
##work
19
well
##urr
one
capital
##ld
##erg
construction
dire
jan
tw
##ount
direct
##ities
eur1
order
increased
##ubl
30
down
##ron
##ater
2005
##ight
11
wor
end
##rib
nord
over
network
under
more
##ould
##urn
##ade
##ass
start
##ower
act
their
reg
plan
increase
customers
swed
rose
term
paper
value
high
loc
##ise
gen
pct
##uk
med
om
work
##ven
##ence
##ata
grow
##ack
board
##ake
des
##ering
sam
contin
second
14
ret
some
##pr
process
coun
building
##isc
##ever
hand
##hol
##xim
announ
after
two
omx
25
##ders
##air
rep
sept
january
would
##ries
##ures
##ational
news
can
larg
##let
##ys
##ark
##eng
##oll
usd
development
pres
result
decre
employe
##ix
##enc
##ices
##unic
##ram
##ipment
deal
industry
gener
##ision
estim
intern
management
13
thir
eng
earlier
september
##ax
##ous
##ko
##ide
##ious
russia
aut
jo
pe
tim
##ports
equipment
third
la
##mn
##ines
mach
design
last
tra
##pe
expected
car
dist
hol
real
head
soft
deliver
count
publ
##ie
##ately
##ite
stor
lead
##over
##ve
##we
##ree
ass
##age
2011
into
ar
curr
##fore
##ward
annual
acquis
decreased
16
cr
ceo
glo
had
lo
##fer
##oper
same
glob
el
eff
fr
oct
rem
##ps
complet
cost
maker
employees
bet
fac
num
pos
iss
plc
price
##abl
signed
##ribut
media
software
##te
##ator
##ecom
##ateg
18
how
no
pers
##ht
##rough
##ents
neg
opt
red
##ina
##ons
##arm
##ene
ste
systems
electron
global
bas
##ud
##onn
europe
##ific
world
sell
##ka
##osed
while
##alled
both
announced
sect
##ach
##ost
##alt
##idi
##change
markets
data
##mm
exchange
amount
including
approxim
number
approximately
do
four
through
inst
##ative
##ala
##ights
brand
current
lt
inform
##iss
##ident
area
##ople
rele
people
billion
ka
line
may
now
##ues
##uuk
##ks
##ments
manufactur
prev
growth
engine
17
jun
mod
##ex
anal
##els
##ecial
impro
acquisition
ltd
##uukki
long
turn
va
##ric
##ola
reven
most
strateg
previous
nov
##uc
##ober
asp
fl
sm
##ey
##lic
##inen
##ars
##pert
euros
subsc
subsidi
months
distribut
october
35
fur
ful
gl
##ued
##ved
##gin
##alf
eur0
applic
amer
countries
disc
lat
##ma
stake
sharehol
supply
telecom
transact
feb
addition
tal
##sp
##rol
march
use
consum
communic
time
information
june
further
50
gr
non
##line
##20
##ory
before
manufacturing
retail
##ween
between
however
av
apr
during
half
pur
port
targ
##gr
##ila
##lex
ext
##ote
energ
buy
remain
steel
target
fell
power
##ea
these
##oti
##otec
includes
largest
negoti
engineering
april
23
21
cas
cut
oil
vol
##her
##ined
##inery
##ators
compet
##este
partn
solution
reported
##ible
gre
##con
##la
they
##urg
dep
acquir
nordic
swedish
40
aim
made
##ss
##ling
##gan
##ished
capac
meas
##nings
release
energy
24
bro
foll
lif
##ria
special
estimated
subsidiary
bec
balt
food
rights
san
three
##ady
##pping
years
china
##ound
totalled
earnings
signific
international
follow
100
29
aug
carg
mill
mater
nine
ty
##rial
##ari
conc
expand
office
industrial
include
electronics
capacity
significant
dem
lay
min
##min
##round
eur2
form
control
expects
activ
transaction
material
26
dr
fund
op
pet
sit
sch
##ting
##unch
sale
main
totaled
manufacturer
22
det
dig
foc
go
good
pat
pay
##led
##jor
##ind
##ester
##ord
##ings
##isk
secur
##ength
machinery
facility
revenue
cash
focus
air
city
day
pol
##ph
2004
says
whol
##ame
trad
rece
local
president
sector
americ
negotiations
volum
august
eps
lower
ro
##da
##ral
##ruary
##ge
##omp
##pped
enter
when
major
##ructure
meet
units
pharm
transfer
raut
nordea
sweden
launch
february
purch
baltic
33
bel
lit
sin
ti
##hip
ins
propert
forest
stat
sav
such
north
related
divid
##ouse
holding
basware
27
award
eb
jul
li
ruukki
te
tax
##burg
##gram
##quarter
##erc
##ones
##anes
##ising
prop
program
compon
##ives
ent
offer
establ
interest
post
phone
repres
##ency
31
kn
lev
mat
set
##uation
##lement
##als
##itive
##ici
exc
cooper
support
strength
headquarter
stora
avail
around
log
rest
sout
vot
##xt
##way
##ja
##ister
comb
corp
orders
upm
developed
provider
projects
director
completed
im
ky
##ert
there
##itions
eur3
##ems
where
maint
adp
eston
russian
division
networks
region
leading
option
november
discl
sanom
july
available
ah
due
qual
sl
uk
won
##ium
##cote
##ne
##ern
##ason
##aster
##ready
##iday
##ecut
ref
already
suom
env
enso
plans
charg
supplier
strong
directors
general
elcote
shareholders
elcoteq
em
his
six
yit
##iff
##bers
##ily
##ised
##utical
perform
sub
capman
center
added
##aceutical
personn
turnover
strategy
distribution
communications
since
dividend
personnel
36
aff
par
pul
pack
rap
tak
##ience
##fr
##aff
##era
##ining
##isa
##ively
##ump
press
agreed
customer
continue
carri
position
amounted
acquired
pharmaceutical
insur
28
80
bl
ger
mid
range
##ration
##na
##vi
##iron
next
prices
produc
##aging
resp
week
make
provide
effect
effici
currently
following
demand
represent
cre
diff
esp
fisk
list
tem
##ga
##ural
##ental
eur4
##earch
cover
firm
partic
poh
scan
handling
##ixed
autom
issue
fourth
analy
previously
full
peters
security
awarded
environ
fiskars
45
fact
mem
tik
##ah
##aus
##met
##edit
##ilities
##ick
exper
execut
##ements
chain
used
##mpo
##ipt
trade
developer
estate
##ized
##iew
credit
friday
costs
grew
performance
german
tempor
petersburg
fi
fun
kem
mr
qu
tur
via
water
##set
##ds
##ript
##pa
##pl
##enance
##its
staff
sampo
##ular
##ults
alma
print
chair
##ama
results
december
commerc
central
processing
joint
subscript
situation
meeting
headquartered
maintenance
quality
insurance
commercial
38
60
found
id
lem
pass
ve
vers
##uce
##ior
##row
##strom
eur5
stre
organ
##istics
provides
internet
asset
open
detail
america
cooperation
chairman
70
bn
key
sim
sports
take
##oice
##ned
##vers
##ke
##urs
items
begin
##ived
##thing
pret
seg
##ffic
account
recent
commit
##ourc
built
metso
owned
started
terms
auth
traffic
delivered
volume
voting
sanoma
pulp
pohj
environment
ev
fut
sever
ww
war
##tel
##sh
##oo
##ha
##ara
##ises
store
##ira
##ership
need
finnair
summ
play
place
chang
respon
##ainen
access
##mann
poy
implement
register
plants
analys
aspo
small
applications
measures
broad
cargotec
purchase
ahl
affect
respect
analyst
kemira
pretax
several
00
fixed
gover
ok
pan
rental
si
tre
tonn
##uan
##uced
##ied
##iason
##fil
init
ant
state
cond
being
##iven
reports
near
margin
enabl
plat
##ability
areas
marketing
research
devices
offering
sold
record
teliason
stockmann
investments
delivery
##urring
worth
higher
present
european
savings
component
level
strengthen
differ
members
future
www
respons
ahlstrom
teliasonera
32
base
bio
back
col
cle
ol
park
very
##ky
##onen
##ants
##edul
##ction
##ided
stand
##ection
##istration
recurring
teleste
handset
public
positive
issued
reduct
schedul
whole
posted
south
estonia
poyry
govern
43
cli
kes
neste
##uit
##son
##yc
##ker
infr
##edn
tool
only
online
reach
##ows
att
who
priv
chie
held
upon
device
index
ago
decision
decided
contracts
secure
corporate
afx
install
flow
subscrib
glass
application
life
materials
received
packaging
passeng
author
infrast
chief
best
call
home
mult
merg
sur
sel
wedn
##com
##50
##kur
##esday
##ale
any
eur6
##olid
conn
##ung
sho
requ
operators
income
##ocomp
content
##ages
using
##isting
adv
##aston
##luding
web
outotec
consult
consolid
employs
transport
##ization
large
##ramo
publish
##ission
aspocomp
digital
excluding
logistics
import
scanfil
##ources
pohjola
tonnes
infrastructure
wednesday
56
cramo
econ
fu
five
ge
gas
ha
squ
test
tek
wood
yester
##ti
##ipping
##fol
##les
##ink
them
inn
##alm
compr
##ider
fort
##emical
ship
incap
sek
admin
investors
##ically
manager
making
##ension
technologies
close
published
strategic
taxes
combined
rapala
##ause
executive
different
government
econom
square
yesterday
39
48
49
500
ap
but
big
bene
dro
house
jap
tec
tam
vent
x20
##ted
##va
struct
beer
shipping
existing
ald
maxim
maga
##oci
india
managing
provided
acquire
paid
##ize
elisa
glaston
consumers
portfol
partner
activities
ebit
liqu
established
tikkur
##metic
germany
details
analysis
respectively
okmetic
scheduled
kesko
magaz
tikkurila
46
47
cal
dis
er
fish
fall
kon
lic
low
ny
nat
sq
site
ten
##ty
##til
##ful
##bo
##mark
##get
##inal
##ross
##ety
forec
operation
operates
super
atria
##raz
covers
chemical
again
brid
phones
owner
return
deliveries
look
facilities
brands
telecomm
##mink
funds
property
disclosed
particip
experience
turk
platform
componenta
innov
benef
aldata
maximum
portfolio
90
aust
clo
fil
flex
if
lith
lik
nar
tall
tues
way
wind
##to
##ep
##egr
##ring
##ranes
##oint
##par
##kt
thurs
##aruukki
##ited
##itut
##eless
##eto
prot
##ideo
##ecranes
conver
asia
##imek
operator
marimek
enable
cour
##aces
##okump
resources
move
offers
##ption
meat
outokump
developing
integr
##ught
closed
planning
located
generated
stores
associ
electronic
improv
improve
consumer
poland
rautaruukki
tieto
team
restruct
listed
subscription
lemmink
treat
fortum
tecn
konecranes
natural
lithuan
tuesday
thursday
marimekko
outokumpu
42
55
57
51
alex
bre
bond
kone
lond
mor
nas
nav
sk
video
win
went
##uch
##ef
##aara
##bank
##hod
##ann
##arily
##ases
##eld
##ters
she
within
##artment
businesses
##ounts
offic
book
##thern
technop
makes
providing
##ove
bring
raw
included
199
continued
##holm
estimates
arr
options
##mmene
improved
talv
become
because
##daq
kymmene
slight
versus
clear
structures
narrow
restructuring
alexand
london
nasdaq
41
53
dom
fair
har
il
mus
nn
ple
ru
ram
sat
vess
##cement
##aht
##aja
##other
##band
##ination
another
##urement
##asing
##isio
##irent
alt
suc
contain
##ably
upgr
##ards
offs
bought
investor
consider
##ensive
build
metal
method
prem
divest
planned
additional
cargo
liters
properties
entire
espoo
temporary
printing
segment
recently
summer
broadband
enables
tekla
administration
venture
x20ac
bridge
telecommunic
37
300
65
braz
cir
cert
den
date
fisc
gain
hy
hous
just
mos
os
run
rout
sil
tex
vis
vac
vice
wir
##uing
##ii
##iev
##amp
##bt
##by
##mb
##ying
##house
##gest
##ws
##inc
##ints
##orp
##ories
##rod
##aly
##omm
##ential
structure
##emens
##ivaara
##ected
change
##berg
users
##look
adj
expans
syn
outlook
monday
stockholm
points
raisio
impact
few
electric
working
growing
announcement
newspa
machines
country
france
institut
vaaht
fully
patent
trading
below
establish
##astern
carried
efficiency
automation
stream
assets
beginning
siemens
responsible
clients
tools
private
subscribed
liquid
magazine
arrang
talvivaara
ramirent
telecommunications
brazil
circ
fiscal
expansion
newspaper
vaahto
01
34
44
74
75
bi
bar
cenc
gu
hon
lab
national
pot
right
var
##ier
##ress
##co
##ou
##less
##lined
##gian
##wide
##erning
##ending
top
##ists
##isala
prom
eur7
forward
##olis
stud
##oski
operational
##ody
invol
above
northern
space
##ified
commission
industries
reporting
agreements
##ences
jobs
machine
complete
persons
negative
##ostaja
model
vaisala
latv
latest
communication
aims
concerning
mainly
digia
raute
holdings
know
known
suomen
changes
panostaja
bioh
installation
connect
shopping
consolidated
treatment
slightly
alexandria
adjust
cencorp
400
52
bid
dil
ever
fig
given
hu
hot
jy
lines
mic
name
pension
rad
rise
##ta
##side
##0m
##red
##comp
##val
##put
##gn
##jo
##eries
##inn
told
##isation
##icated
##stand
comptel
sto
states
conf
shop
short
read
expert
aland
##ceed
mail
##umb
##ipal
able
##rict
weak
norway
##onda
introd
banks
##ibility
owns
150
equity
##ublic
starting
location
art
revenues
partners
##phone
representing
factory
environmental
olvi
clothing
technopolis
narrowed
domest
wireless
04
3g
67
bal
cz
dail
es
each
eastern
fer
fav
gra
ho
hit
kar
lim
pain
rate
tap
wa
your
you
##ton
##cow
##nam
##most
##han
##anch
##orts
##edi
##eder
##ats
##entum
comput
##uted
final
##ivers
rev
cop
prim
waste
##atings
core
invent
indian
declined
spring
sponda
technical
outside
financing
banking
##ends
##ense
manufacture
##iking
afric
class
##prise
##ference
##hti
selling
shareholder
talentum
remaining
competition
department
concern
goods
propos
efficient
veh
initi
##kyla
uponor
passenger
important
economic
biggest
japan
nyse
lemminkainen
navig
music
moscow
electricity
various
biohit
domestic
czech
daily
64
68
62
61
88
85
came
did
ed
imm
later
member
mik
sing
soc
viking
##den
##ck
##vel
##bor
##kka
##go
##inary
##onal
##organ
##atch
##itors
##stain
saf
saw
##ired
##lect
##osing
##ulu
without
almost
sum
sustain
union
usa
##anta
offices
norwe
##ancy
parties
recomm
united
elev
approved
approval
actual
continuing
republic
generation
loan
worldwide
cutting
volumes
road
enterprise
statement
charging
producer
function
##amaki
reductions
transportation
dropped
success
potential
huht
micro
social
norwegian
06
03
08
600
800
dia
east
efore
fre
flo
fram
get
ju
let
nam
old
put
pop
pip
ren
side
tul
tons
ur
voice
wide
##rit
##cc
##can
##ness
##vas
##lines
thom
##ano
##ench
##alth
##ional
##itor
##ilar
##asts
##elt
stain
stood
##pere
##iving
##ires
##osen
export
##imal
##imari
alum
salcomp
ens
what
produced
serve
##lands
univers
many
resident
invoice
separ
expl
increasing
##anced
among
health
recyc
spe
##ended
early
manufactures
##uble
metres
metals
raised
eur15
works
workers
presence
designed
acquisitions
completion
##atory
personal
358
launched
tiimari
components
suominen
temporarily
analysts
conditions
fuel
tampere
benefon
tallinn
improvement
lithuania
pleased
diluted
africa
vehic
recommend
huhtamaki
stainless
54
58
63
99
ach
aud
bul
bot
cell
dut
dans
even
fam
free
gave
gives
hk
ir
kro
light
my
mal
mot
mech
much
ore
oulu
q1
rail
rates
sen
sev
tv
vi
vanta
wel
ware
##tr
##ai
##nia
##med
##kar
##1s
##wer
those
##aries
##atal
toget
##omen
##omark
##old
still
station
##ivity
should
##ays
mark
ground
##umn
user
ori
##verage
see
sea
seen
##aken
##lud
appoint
heat
heating
comparable
##ource
branch
phase
employment
mets
feed
directed
overall
papers
processes
employee
autumn
travel
holds
cranes
basis
sectors
does
kaup
modern
##ecially
smart
consumption
##hern
partnership
mills
controlled
airline
american
entered
levels
southern
##news
weeks
especially
ident
registered
affecto
initial
reduction
calls
selected
forecasts
flexible
like
vacon
labor
latvia
##standing
expertise
safety
alumin
residential
achiev
mechan
senior
together
02
09
59
66
76
73
77
71
86
89
81
akt
doc
doll
et
far
furn
gy
gam
give
hist
hks
ix
less
mer
nr
opp
rat
ut
view
west
##iation
##dance
##cl
##off
##ough
##ving
##mo
##gen
##inav
then
##onos
##anen
tom
##ured
##iture
##oman
##icon
come
##stan
##reg
##illing
compos
complex
##eck
italy
stone
conference
##unity
##ush
##andinav
show
##iab
exports
##lying
##cept
##tsila
across
chall
##aged
und
##ope
orion
##kian
##ained
sepp
webs
##anks
amounts
def
managed
accordance
ownership
electr
ordered
terminal
job
hold
load
better
nokian
reduce
##ification
double
released
kaz
manufacturers
targets
competitive
acquiring
specialty
tyres
mining
activity
citycon
wholes
statements
adpnews
estonian
disclose
taken
carrier
pharmaceuticals
street
similar
needs
player
conduct
recorded
reached
consulting
happ
fishing
chemicals
tietoen
tecnomen
brew
sheet
officer
denmark
route
silicon
study
every
jyvas
immedi
frame
thomson
ensure
vantaa
gyps
hkscan
ixonos
opport
challeng
jyvaskyla
07
82
87
91
bor
cit
cement
categ
cross
fle
fri
feder
jump
kore
live
mess
nom
nick
ob
pc
poss
pek
pons
sent
ski
sli
series
##ument
##upp
##rv
##fo
##come
##no
##lt
##mar
##ged
##greg
##wh
##inated
##inks
##ened
##atives
too
##elim
##str
eur9
2003
fine
##ole
concent
##tern
asian
ready
reorgan
##ules
##ima
operate
finnlines
nether
profitability
coatings
prelim
produce
until
##open
2012
##vert
##okatal
upd
advert
debt
interim
consists
intell
least
##enses
brit
raise
notice
allow
approach
feat
science
eur13
locations
decrease
estimate
designs
district
##wards
##teq
##hta
kauk
transactions
retailer
buyout
measurement
broker
typ
type
conclud
significantly
former
drives
sites
going
##estern
receive
majority
transferred
propose
proposed
subst
parts
blue
producing
create
particular
fiber
subscriptions
organization
accounted
accounting
committe
warning
wartsila
standard
passengers
merger
surf
geos
against
association
ruokatal
container
circuit
computer
navigation
sustainable
elevators
floor
danske
family
warehouse
kaupthing
aktia
website
electrical
tietoenator
gypsii
nickel
ponsse
concentr
netherlands
preliminary
ruokatalo
700
94
900
average
care
canc
cable
coll
called
dan
eight
ft
fire
him
hard
hour
hong
kal
kil
ll
mw
munic
ninen
ov
ply
past
palm
qpr
rag
sn
sv
size
source
tm
vm
vend
vene
wal
zinc
##uments
##sk
##sopen
##ij
##ipped
##di
##dle
##cs
##cel
##cast
##oft
##ner
##nen
##vest
##ler
##losed
##ya
##5m
##gl
##ger
##xic
##wov
##wood
##oni
##ane
##ena
##road
##iles
##omet
comes
comment
finance
stones
##emi
##unities
##ivi
##ivid
##irmed
shall
##raft
##iesel
plus
could
contact
contribut
char
##aving
help
##soft
indep
abp
##akh
invested
norm
spec
spok
sysopen
output
supports
providers
money
point
metro
##ikivi
valued
allows
##eover
scandinav
eur10
eur12
medical
continues
##isclosed
250
usd1
laid
training
track
carry
leader
section
models
turned
flights
subsidiaries
talks
##spect
nonwov
buyer
cuts
demon
miner
goal
payment
tehta
matti
kyro
subject
field
##plan
founded
opened
segments
commitment
accessories
implementation
smaller
nearly
required
consultancy
ebitda
calc
##board
forecast
turku
innovative
court
integrated
##banken
ilkka
nnnen
satama
vessel
vessels
upgrad
upgrade
premises
hyd
housing
synd
arrangements
honkar
radio
balance
successful
microsoft
tulikivi
speed
motor
seven
##akenne
appointed
ratio
undisclosed
kazakh
fleet
jumped
slipped
committee
danish
municipal
vmc
stonesoft
independ
nonwovens
tehtaat
honkarakenne
84
96
95
bav
becom
bench
cam
dur
eet
fro
fit
fron
farm
gard
her
hum
iv
iron
kd
ke
kc
kong
land
late
link
mh
m2
n7
occ
pi
rene
role
slo
ter
ver
vir
vari
wip
##ten
##ih
##iit
##ients
##iences
##iemi
##eign
##r1v
##fi
##fa
##cor
##cal
##curement
##aim
##vill
##ba
##bn
##bv
##lin
##lus
##lish
##lies
##yal
##pos
##pond
##hensive
##gar
##gium
thus
thanks
##ins
inf
##ori
##oration
##aring
##ison
##isions
##ctions
##icing
##icip
##elf
##ether
##ention
##rehensive
procurement
comprehensive
foreign
2001
##utis
find
stations
##emark
concept
beh
##usk
##osure
##ada
exel
perman
##ime
##ode
##ots
##raph
marine
enh
mac
plast
gross
##erview
##ape
prior
chines
chosen
##acy
##aced
uses
orig
##sour
reserv
invo
trend
individ
expenses
abroad
##ogn
##ograph
accounts
##lied
recover
recogn
##ify
mean
means
mexic
lease
telko
reloc
relations
##ensing
mobility
120
##izations
ended
140
repe
engines
times
currency
positions
##teplan
reduced
installed
##issan
##issions
latin
grad
grimal
extended
remained
deploy
aimed
layoff
controls
polic
trademark
belgium
forestry
interested
regional
sanomat
rapid
takeover
block
black
effective
functions
organizations
players
anticip
enabling
color
authorities
require
advanced
publisher
austral
likely
course
official
considerably
divestment
certain
institutions
guid
involved
figure
hotel
ferry
limited
paints
review
proposal
diagn
juha
letter
popular
kroons
oriola
aluminium
etteplan
wholesale
pekka
##market
overview
veneer
spokes
kazakhstan
independent
garden
renew
permanent
chinese
individual
grimaldi
05
69
83
93
98
92
aker
bln
billing
card
camp
e6
eest
fts
fast
fib
gmb
gold
hom
hall
hann
kalm
lu
ls
lass
lind
master
nl
pm
pil
pear
pac
riv
rating
roman
surg
ssh
tro
tail
tires
vo
want
york
##tin
##si
##equ
##6m
##aug
##ox
##vs
##vo
##bl
##ms
##mill
##hu
##ham
##king
##ging
##ground
##10
##1m
##wire
##eration
##ored
##enn
##ath
took
towards
##urb
##urch
##itt
##ash
##isf
##isory
##ele
##ett
##entric
coming
comments
eur8
eur20
##eme
##ulated
excess
examp
neomark
##ppi
##otree
##raine
white
plumb
profiles
coated
coast
orange
##ips
##isto
##antial
resol
sees
offsh
##akes
##rian
recr
interf
symb
outstanding
outsour
develops
intent
supplies
stocks
prepar
swit
swung
centre
correspond
address
equipped
clar
closing
scre
networking
underground
active
registration
sami
repl
repurch
larger
##lets
130
assign
annually
loans
##hty
optim
redund
##armo
instr
distributor
grant
purs
##gress
extension
green
great
##cont
depos
foods
expanded
format
scheme
goog
patients
focusing
days
traded
litres
interesting
headquarters
votes
ukraine
refining
reflect
emissions
taking
middle
quick
##place
printed
opening
event
##iveness
strengthening
colle
##ycle
authority
multip
webcast
tests
comprising
apart
licensing
superv
looking
turkey
austria
integration
tecnotree
lithuanian
divested
houses
text
connectivity
figures
##joki
confirmed
favour
functional
recommendation
bott
dutch
railway
welcome
smartphone
mechanical
furniture
games
utility
friend
korea
british
concluded
substantial
geosentric
llc
plywood
normal
upgraded
benchmark
front
wipes
mexico
layoffs
australia
diagnost
eesti
ftse
gmbh
kalmar
surged
example
neomarkka
plumbing
offshore
78
bur
cy
civ
cities
cfo
code
dy
ded
dra
dok
e7
eek
hear
ham
host
hung
having
ii
ice
jp
jarmo
kit
kall
kari
kind
lear
lte
mil
mol
mad
mine
mall
nast
nuc
push
q2
roll
rtr
sun
send
siz
srv
tu
wid
wants
western
yet
zone
##uil
##sm
##sch
##sung
##eal
##ead
##ego
##fers
##cd
##care
##af
##aw
##aur
##of
##ves
##br
##buil
##30
##mi
##more
##yt
##hib
##kin
##gent
##9m
##xes
##wor
##za
##zh
##ero
ther
thous
##ana
inaug
##oring
##arding
##edia
##enor
##ening
##enna
##ato
##ather
##aliit
town
touch
##itable
##itiveness
##ili
##omon
##omat
##ication
##eli
##ela
##stj
proud
proceed
prospect
2000
##uty
stated
stri
say
##ley
##lear
shang
##chang
itself
exerc
##oted
martel
placed
profess
profile
profitable
princ
pricing
chann
check
serving
##que
##log
groups
euro1
##amo
##allissan
truc
express
agric
boost
boats
##rik
solidi
solteq
##resh
##uge
heav
totals
##ift
meur
mega
consist
intel
intends
community
tele
manage
manages
##ually
losses
employer
##ikallissan
paikallissan
prefer
prepa
delight
notes
noted
cents
soon
clim
claim
sciss
scope
198
eur11
action
regions
worked
samsung
counter
buildings
256
canada
engaged
law
cars
arch
arena
cru
crit
issues
##ude
doubl
throughout
branded
informed
kaun
novel
discuss
telecoms
##roll
furthermore
extra
extract
competitiveness
lifting
specialist
specialising
became
followed
expands
expanding
minor
drinks
determ
securities
purchases
##anese
programs
represents
therefore
whereby
refinery
charger
ems
emerg
subcont
dividends
parent
representative
creating
quite
##hai
needed
clean
olli
standards
client
attract
multi
surve
connection
geograph
comprise
comprises
drop
japanese
dispos
tender
participants
windows
protection
convert
bonds
morning
clearly
contains
synerg
newspapers
shops
readers
escal
favor
grain
hook
primarily
single
sawmill
frequ
named
pipett
university
healthcare
recycling
vehicle
vehicles
malays
metsaliit
laboratory
achieve
dollars
history
conducted
happy
opportunities
category
federal
messaging
nomination
object
##gregor
reorganisation
types
hardware
ragutis
scandinavian
demonstr
hydro
syndicated
motorola
human
mhz
variety
##lusive
macgregor
original
invoices
deployment
requirements
guidance
homes
hannu
pilot
pearl
pacific
recruit
symbian
##htyma
granted
google
functionality
civil
nuclear
rtrks
thousand
strike
shanghai
martela
solidium
paikallissanomat
prepaid
subcontract
metsaliitto
72
away
bes
bag
biod
bak
body
cu
cd
ca
cer
cro
cos
cast
der
done
eas
ess
fo
fab
fif
fresh
gi
gps
giving
hect
ic
jour
km
led
mom
mich
mixed
n9
nec
oko
oss
pk
pound
pick
rs
rm
rig
rules
sem
sport
search
tas
tect
tab
tack
tlt
util
vat
vote
yards
##uo
##uro
##tt
##tle
##tila
##sbanken
##ee
##eg
##60
##rist
##cil
##apor
##aign
##a1v
##ob
##ng
##vak
##vuo
##las
##49
##mely
##miss
##mission
##yn
##pol
##point
##hn
##hing
##ked
##gate
##xe
##7m
##zen
##ered
##inding
##aneo
insp
##energ
##room
##roup
##alian
##alix
ans
tower
##ury
##ites
##itation
##asis
##eled
##ster
##stone
##remely
probl
compens
##ides
##uters
##utory
##utsch
italian
finish
##olding
star
stra
stages
##emb
##empt
bearing
##usly
##tered
saint
saying
sappi
shows
shale
reason
reuters
##igence
##ching
##ader
##essary
##imo
along
altern
suff
suitable
salomon
##otive
##otie
ending
enough
##porters
whose
map
magn
##eva
##evant
coq
coup
##abil
##abilities
serves
##agen
unc
unchang
2013
##elloni
##istic
##antage
##active
##alling
resid
##ains
seal
seek
trip
quarterly
expend
##akoski
sole
solar
capabilities
fired
appear
applied
##lif
deutsch
heik
spain
outlets
##ultaneo
consens
telenor
105
relevant
meters
signing
##ikka
prec
elekt
raah
##ibr
owners
divisions
scale
nordstj
regarding
termin
##ukka
boards
council
dealers
join
peab
timo
train
headbo
storage
leaders
arm
crane
remov
numbers
##rought
sellers
kai
manufactured
modular
longer
350
retailers
portion
extensive
extremely
targeted
negotiating
competitors
deputy
specialises
formed
drive
##ledge
focused
airb
wholly
transferring
purchased
little
status
statutory
savcor
divided
lih
entit
offered
supporting
##ernan
refin
charges
chargers
stronger
email
360
carriers
demanding
created
tikano
##ahl
developers
quoted
##places
commercially
lem1s
simultaneo
changed
implemented
implementing
analyses
affected
responsibility
handsets
attach
merged
selection
##comm
##50m
testing
economy
dismiss
license
supermarket
participate
participated
tallink
protalix
associated
skog
bringing
1999
consideration
running
visibility
brazilian
circul
biotie
knowledge
alandsbanken
introduce
introduced
ferries
wafer
wafers
initiated
mika
##going
renov
recycled
document
merch
nrvi
viewed
composites
showed
brewery
immediate
immediately
framework
possible
##while
advertising
hours
kilomet
minerals
bavelloni
becoming
duration
occup
slovak
territ
plastic
recovery
meanwhile
policy
campaign
lassila
rival
romania
screen
redundant
collection
textile
favourable
friendly
hungary
madison
nastola
professional
principal
agricult
claims
scissors
cruise
emerging
convertible
escalators
malaysia
objective
biodiesel
foot
giant
moment
necessary
pkc
tectia
tlt1v
unchanged
consensus
elektro
raahe
nordstjernan
tikanoja
simultaneously
750
ara
aven
bir
band
bri
bang
brought
cn
cat
cth
cart
cult
cola
cards
dc
din
don
dong
dub
disa
eg
eq
eat
eero
fat
file
face
faster
got
h1
hen
hop
huge
ip
ict
jar
juss
jukka
ku
kir
kos
kuit
lg
lot
lang
length
lng
libr
mand
mort
n8
nation
nda
ow
oth
obs
pv
pir
pow
pell
rent
rang
risk
ratings
rosen
risto
sand
sla
tank
vu
vr
wet
wall
watch
writ
wcd
yhtyma
##ule
##table
##town
##sc
##do
##ein
##eas
##eum
##eap
##ret
##rup
##rcl
##fors
##craft
##ao
##aari
##night
##var
##bon
##bit
##ball
##bby
##ls
##lan
##lining
##40
##3m
##32
##ming
##mas
##m1v
##minen
##pi
##page
##kk
##kov
##kinen
##g1v
##guan
##will
##wise
##ze
##erce
##inct
##inical
thes
##ona
##ontin
##orn
##arp
##aria
##eni
##enh
##ature
##atively
animal
tough
##urt
##iter
##itan
##iting
##iling
##isu
##isen
##icate
##icult
##eling
##eland
##elds
##star
##stex
##repr
proport
proced
proha
complement
force
forss
##ece
##olving
stop
stage
stakes
once
ongoing
##una
##unn
##unta
##uneration
sach
safr
##anda
shb
asa
reporters
##igroup
##ulf
##ull
##chem
##estone
##ades
exceed
##uction
##ppl
suite
salari
marit
marub
marcel
margar
max
plate
places
##ocol
washing
newly
newstex
cho
cham
christ
server
##ago
unnam
##bercom
##eller
##ista
##istry
##aining
try
trust
trial
adop
moving
abb
##ogether
totalling
solid
capability
increases
apple
apply
weather
bud
investig
nors
##liers
partly
##itional
spons
meego
provision
##ultry
consid
suppliers
leased
102
##endar
monitor
relative
reliab
relatively
##ological
builds
##force
poor
poultry
expectations
note
centres
otherwise
##ibly
##ibody
##ughter
adds
clinical
divers
##izing
194
eur16
30mn
understanding
underlying
highest
highly
medium
##acks
##ackers
afterno
25mn
##encing
##encies
internal
133
john
holiday
realized
assum
arts
160
lost
loude
frank
remuneration
step
sells
170
##elsen
novator
flat
flag
smok
distribute
distributed
fulf
discontin
shareholding
grid
aviation
buying
remainder
targeting
competence
lifted
ministry
drug
drink
peter
goodwill
payroll
secured
aircraft
##phones
room
royal
roof
pharmac
litas
entrepr
matching
excell
cooperative
strengthens
combining
combination
imports
##ertain
wonder
takes
produces
producers
represented
difficult
covering
automotive
factors
experiences
fields
funding
jointly
foundation
idea
veget
version
versions
simp
committed
##ourcing
warr
summary
antibody
strengthened
collect
standing
subscribers
select
advisory
advantage
publishing
fuj
wooden
apartment
tamgl
magazines
470
calif
calendar
licences
##tiles
returned
benefits
window
convergent
morvill
1998
please
altimo
altogether
succeed
premium
certified
certification
hybr
osl
texas
textiles
visitors
institutional
streamline
barcl
promising
commissioned
latvian
connections
adjustments
weakness
esl
hobby
##namic
computers
finalized
copy
primary
invention
initiatives
singapor
putting
universities
separate
explained
540
audio
botnia
ireland
tvs
##omarkkin
identity
initially
documents
dollar
histor
composite
stonegate
seppala
defense
opportunity
citigroup
sentera
intelligence
kauko
kaukomarkkin
concentrate
canceled
vendor
vendors
contribute
chartered
usd12
municipalities
frozen
keep
kci
##ihko
enhance
##apeut
recognized
relationship
gradually
anticipated
officials
goldman
lindex
interface
multiple
apartments
diagnostic
cybercom
dedicated
hamina
jpm
widened
##world
inaugur
trucks
heavy
delighted
doubled
minority
survey
frequency
besides
ceram
fifth
hectares
icis
journ
tackle
compensation
couple
uncertain
deutsche
heikki
dismissed
agricultural
elektrobit
arab
brief
cth1v
dongguan
disapp
jussi
observ
pvt
powder
slaughter
wcdma
proportion
sachs
safran
salaried
marubeni
unnamed
afternoon
loudeac
tamglass
morvillars
hybrid
barclays
singapore
kaukomarkkinat
4g
8mn
aw
amp
bp
bg
bed
ben
bun
bim
bab
ball
bah
cs
cur
cel
cid
cad
cab
caus
cause
cvs
dj
dam
dry
diesel
ec
ey
eth
eila
eco
fis
fail
gal
gall
gift
gulf
hi
hans
holl
hsp
hiab
hope
ib
iphone
jv
jon
jud
jones
ko
kol
kim
kap
kron
kost
kraft
lv
lid
los
lund
lending
links
ms
mir
must
mmo
nich
nik
ot
od
ox
ost
overs
obt
ps
pal
pion
pit
pent
pap
pages
rf
rh
rut
ros
rim
rts
rant
round
risf
rihko
sar
sus
sver
sound
sources
sourcing
tg
tj
tan
tub
tai
tips
ult
van
vas
vod
wat
wro
warm
wahl
##uay
##uated
##tas
##tics
##ias
##i1v
##ield
##eer
##rd
##rva
##fu
##fl
##fon
##cing
##crib
##ae
##ament
##ni
##ny
##nap
##vinen
##vester
##view
##ban
##bed
##bro
##lit
##lem
##lly
##4m
##mit
##mak
##pro
##prom
##pect
##pass
##halt
##ku
##kn
##kil
##kki
##key
##koski
##gu
##24
##27
##90
##73
##7mn
##1a
##11
##wr
##wan
##woman
##western
##zi
##zer
##zan
##jan
##ony
##anium
##orf
##orm
##orand
##orrow
##enburg
##atu
##atically
##roos
##aling
##alki
##alore
##urin
##urity
##iled
##omer
##asons
##asvuo
##ets
##etary
##etnam
##enth
##ently
comfor
20mn
pros
progress
compat
forced
forma
2002
##ecycle
##ution
##utions
sty
stay
stabil
##emed
const
##unction
beers
beij
sab
saar
save
##iring
##ishing
shif
shipment
shape
sharp
shalki
asked
##osp
##osph
##theless
rein
rebuil
reasons
##ige
##ulose
##advill
##ession
##mental
never
nevs
##ppinen
##imedia
operative
alus
alfa
salo
salary
sal1v
atom
##oting
why
whether
maps
pla
plot
##evi
grown
profits
##tsil
coating
##apter
##apstone
##abs
newpage
chic
chenna
unve
##ava
##acement
orna
##load
productivity
eurochem
##ipurin
##elling
##ams
##iste
##actors
resign
##ainment
invite
seat
seas
adequ
quarters
indicated
explo
mov
moved
agency
aggreg
##ogen
capt
decline
decoration
##angas
##liance
##uguay
party
amend
amanda
spin
span
spre
spot
split
##ifying
meadvill
interior
interactive
outdo
contracted
contracting
intended
common
commerce
lee
leg
leave
leasing
leipurin
telem
103
financed
industri
brings
technological
customised
phases
phosph
employed
employing
metre
transports
transmission
##wns
valid
values
percentage
alloc
soapstone
fees
feas
##icsson
152
monthly
elected
click
closure
scot
##izer
##izon
196
twig
directly
eur17
downtown
113
111
understand
actions
swedbank
highl
workforce
describ
continuation
145
handels
##holds
##airs
repay
##arks
##ollisu
resulted
generate
generates
135
english
peeling
timet
thirds
lahti
trail
carbon
distance
distinct
story
assemb
loyal
else
french
remote
issu
##ables
globally
basic
##aching
door
kau
kaupp
modules
turnkey
mostly
##uck
asphalt
smith
discount
supplying
talo
grinding
extends
energia
powered
211
casing
volun
depending
acquires
measuring
measured
240
241
brows
lift
lifecycle
internationally
follows
100mn
299
tyre
tyrv
tyrva
concret
laying
minister
eur2m
driven
opin
pattern
payable
##ordinary
##ordinated
airport
traditional
reception
locally
launching
believ
liter
sinter
tii1v
statistics
270
ebrd
entir
matter
matters
maturity
exclusive
supported
restaur
eur3m
ahead
qualcomm
slow
refurb
suomi
envis
charge
midnight
creates
eur43
covered
coverage
poh1s
analytics
environments
factories
memorand
experts
turun
##itsu
foundries
eur5m
organic
detailed
authent
eval
events
##telecom
summit
changing
respective
okm1v
panel
sih
sievi
biofu
backup
stands
publication
southe
attempt
privacy
multimedia
merge
##alehti
eur65
shoe
request
fuels
hamp
##almi
ships
shipy
households
x201a
460
displ
erkki
ericsson
nyberg
turkish
austrian
cloud
filed
filter
filters
flexi
protocol
improvements
break
morgan
navteq
winter
booked
1997
530
534
harri
harvester
rule
satisf
considered
additionally
gains
osu
oslo
routes
institute
establishes
streamlining
honka
involves
modeling
adjustment
523
mails
environmentally
graph
karppinen
paint
##hani
revolving
copper
copenh
mikko
##borg
sustainability
getting
juhani
names
pipel
uranium
uruguay
increasingly
recommendations
mylly
tvo
vietnam
##trader
marked
grounds
metsa
achieved
nrtsil
tomorrow
defined
challenge
challenges
federation
##where
updated
advertis
surfaces
concentrating
career
collab
fireplace
fireplaces
kalnap
snow
svens
contribution
helping
carrying
calculated
successfully
fitness
ivrcl
kcr1v
piet
##field
recognize
relocate
repeated
rapidly
anticipates
spokeswoman
renewable
fibre
fibers
lux
resolved
switch
switzer
clarify
repurchase
assigned
assignment
instrument
instruments
deposit
quickly
bottom
dynamic
kallasvuo
learning
milestone
sizes
tuom
##afone
therapeut
prospects
exercising
channel
boosted
megafon
telephone
extraordinary
extraction
disposal
synergies
crowns
essential
fabric
picked
rmr1v
tasks
##politan
problems
alternative
magnet
expenditure
precision
trainers
removal
airbus
attached
documentation
merchant
kilometres
slovakia
territory
avenue
birch
bangalore
cataly
culture
eqt
kuitu
others
forssa
margarine
washington
choose
considering
monitoring
smoking
fulfill
wonderware
vegetable
fujitsu
historic
bunge
djsi
hollola
hspa
ibm
lvl
mmo1v
niche
oxy
obtained
rutav
risfelt
sverige
tgk
taiwan
ultra
vodafone
wrote
warmly
wahlroos
beijing
shipments
shalkiya
nevertheless
nevsky
chennai
ornamental
meadville
described
handelsbanken
assembly
kauppalehti
tyrvaan
concrete
midnighttrader
memorandum
copenhagen
kalnapil
switzerland
2mn
220
3mn
320
620
79
850
a3
ale
bh
ban
bit
bos
bod
blo
barg
bert
ce
cv
cg
cj
cin
cra
cum
coc
case
cry
cycle
cxe
dv
dos
dest
dim
dart
dog
die
diss
dna
ek
eli
ethern
efo
fes
fert
folding
gh
gar
gun
gone
geo
garm
game
gmo
hal
hil
here
hatch
hosp
ifr
iitt
je
ja
jor
jens
ki
kr
kas
kid
kra
kans
lk
les
lar
len
las
lum
lend
lov
lever
lures
lights
lining
love
liab
lyn
md
mc
m3
mm
mis
mel
mut
mun
mount
mits
mumb
mention
ns
ni
nk
nur
nit
nem
nki
pon
ped
piv
pra
pav
pank
pract
pelt
pori
qt
rt
ry
rp
rot
rab
rop
rak
rich
rank
rug
rub
rost
rsp
rising
sr
sod
sri
sens
sve
sister
sized
sending
sense
ta
tum
tort
tight
tie
torn
tunn
tenth
ul
uae
vt
vl
vel
vill
vim
vary
varm
vwr
wr
wil
wish
wag
wave
wif
yara
yield
##uine
##uok
##uous
##uits
##tom
##ties
##tti
##tainment
##sec
##ship
##ient
##iard
##ija
##ique
##iece
##dr
##dw
##dam
##eor
##een
##e1v
##eisen
##62
##0mn
##rel
##rand
##right
##rators
##fect
##furt
##cy
##car
##card
##c1v
##count
##conn
##cbv
##ael
##ois
##ool
##ns
##n1v
##n40
##vin
##van
##vor
##vio
##vik
##be
##bat
##bound
##bden
##list
##long
##lund
##lery
##42
##31
##80
##8m
##82
##yond
##yalt
##ybden
##pri
##pose
##hi
##ho
##has
##how
##hra
##hio
##honen
##kers
##kama
##konen
##gon
##ges
##gel
##98
##xx
##xide
##xbt
##70
##72
##16
##wa
##wers
##west
##water
##word
##watch
##jar
##jas
##junction
##eras
##erix
##erling
thin
thing
thre
##inet
##inne
##invest
##ese
##esis
##eskyla
##anol
##anne
##aniemi
ince
inspect
##oro
##orpor
##orative
##edef
##eness
##att
angel
##inger
toler
##uri
##iti
##ita
##ils
##ilit
##ilizer
##oma
##omass
##isis
##isure
##ctor
##iced
##icks
##elin
##elter
##etu
##eter
##etit
##enty
##sts
##stre
##stration
##rew
prote
proline
prohib
prolong
eurone
##idence
##eco
##ecol
finier
##olutions
stable
strict
stackers
##ema
isra
islands
##person
##perumb
ones
onto
conven
confer
convers
congress
conjunction
bever
beef
beverage
beyond
##used
##ushan
##ivv
sap
saud
willia
##ersive
##ishi
##leaching
shed
shel
shot
ash
##osat
##though
##thenburg
rehu
reiter
reactors
##ula
##uly
##ulate
##ulates
##ulatory
##ador
##ayed
##owled
exam
exhib
permit
perfect
neigh
neud
nexbt
hass
##ppines
##imap
operated
alp
alone
alliance
aln1v
although
incur
inclusive
incorpor
##oty
##rava
martin
marath
enjo
whom
yearly
##ocket
##ially
coal
cool
coag
##00m
acg1v
ackn
##ervice
##apt
##apies
contr
predef
chp
chil
chance
choice
cheap
chapter
served
servers
unsec
unique
##berry
##oph
##avi
##aver
##aven
2015
ord
helast
marketplace
marketwatch
##vere
##ellation
##okinet
##isten
##antel
##alls
resource
seb
season
seats
trying
truly
##dered
adding
adac
adapt
indicate
indosat
2007a
offset
abs
abn
agm
agend
box
boxes
boomer
##rix
##riev
##rietary
capable
##echn
appar
appeal
##anger
weight
investing
accomm
##liest
##ugg
deb
deep
height
spare
techno
meg
interrup
interconn
outcome
annum
proven
consort
consecut
helsing
intake
intensive
supplied
commence
communities
lean
leed
leak
left
leaving
leisure
telanne
106
10mn
makers
earned
earliest
relates
##ensions
strand
strugg
bras
##factor
builders
##ubishi
##ford
phil
phot
phys
phili
meteor
paul
prep
precor
afe1v
financially
financialwire
valke
valley
delhi
delayed
raiff
raivv
##eks
##ekoski
swiss
soy
##ibis
##ibilities
impress
approx
approve
appropri
122
155
159
equal
##sey
delivers
delivering
clos
scaff
sciences
sciard
##urred
##lden
twh
eur14
eur19
eur150m
##ubles
302
download
116
118
112
overla
undert
acting
paperboard
genuine
mediation
workfl
##vency
deskt
samas
continents
continental
continuous
secondary
143
retire
retaining
##press
processor
handle
handled
##holders
announce
omxn40
253
259
resulting
deals
generating
estimation
134
131
auto
joins
timber
holder
holders
heads
leadership
assist
1649
crore
crisis
globes
franc
##teers
##atories
185
basket
##udur
bothnia
doppl
instead
engineer
engineers
174
172
module
modelling
vaias
##ucing
flight
smelter
##arsvar
distributions
gla1v
glisten
latter
latvi
lattelecom
stakeholders
talk
communicated
grade
grants
grupp
avest
portal
portti
extend
remains
powerful
cutlery
##lahti
depth
depot
measure
245
lifet
baltics
layer
minn
eur23
eur28
eur25
eur21m
controlling
controller
actively
dress
driving
schult
school
gothenburg
patric
payments
airports
airlines
polish
polyt
lowered
rob
rough
entertainment
meetings
330
belgian
insight
savon
awards
lietu
teus
proprietary
entity
maturing
sett
##icient
excited
restrict
##ways
combine
combines
image
eur30m
maintain
disclosure
aho
slid
slide
slash
##asters
refused
emt
subordinated
affairs
affarsvar
paris
pulkov
packed
insurer
respond
weekly
effectively
representatives
eur42
eur40m
firms
automob
automatically
450
factor
tik1v
##aho
##metics
executed
executives
quote
waterbor
waterque
386
385
ideal
lemcon
eur50m
organized
70mn
bns
commitments
##shire
##ooth
affectogen
antenna
anttila
platen
presentation
presently
321
parks
schedules
432
attention
attacks
subscribe
authorized
merging
surpass
eur61
consultant
consolidation
consolidating
imported
importance
561
shipbuil
sek1
administ
apiece
apetit
bigger
ventures
##vaeskyla
structural
liquef
disput
ervio
fallen
lowest
##book
superior
looks
telecomms
innova
innovation
film
protect
converting
integrate
associates
skf
wins
winning
books
alexander
harvest
ill
museum
nnen
nnekoski
altima
methods
premier
runs
silva
visit
liquidity
arranged
arrangement
012
biological
biomass
labels
promise
promote
eur7m
involve
adjusted
hotels
jyvaeskyla
radiation
reading
150mn
artic
045
balanced
limit
##hana
copying
prime
inventor
inventors
inventory
concerned
proposes
proposals
initiative
navigator
612
editor
immersive
##dened
elevator
oldest
tulonen
urban
exported
separating
separated
explains
healthy
speak
bullet
bullish
bulgar
cellulose
duties
stationery
smartphones
identical
laboratories
aluminum
860
furnaces
tomtom
wholesal
breweries
challenging
borrow
citing
korean
message
nominal
obl
pcbs
skiers
update
updates
intellibis
britain
noticeable
allowed
feature
featuring
featured
brokerage
concludes
particularly
geosolutions
cancellation
collar
kilos
ragot
walking
##skoski
##vesta
helped
specified
metropolitan
scandinavia
demonstration
kyroskoski
becomes
cameras
cameco
farms
verizon
##linna
infl
infra
##oriasis
behalf
behind
##uskunta
reserves
reserved
relocation
grades
policies
colorful
spokesperson
fastest
tailor
voima
##ittal
eur20m
outsourced
outsourcing
preparing
preparation
corresponds
clarity
repurchased
optimization
pursue
deposits
reflects
supervision
supervisory
normally
diagnostics
burdened
doktas
hosting
molybden
pushed
therapies
proceeds
exercise
channels
consistent
consistency
preferred
climbed
1989
critical
discussions
determined
determining
attractive
geographical
disposable
synergy
favorite
pipettes
pipettors
demonstrates
thousands
subcontractor
subcontractors
bags
cosmetics
easier
michael
riga
rigid
semin
##energo
answer
strait
sufficient
residents
tripled
appears
##lifier
headbox
headboxes
refinance
supermarkets
circulation
circulating
renovation
cnc1v
cartel
henrik
hopes
langu
library
mandatory
mortg
nationwide
owing
pirkka
written
thesis
procedure
exceeded
maritime
budget
norske
provisioning
reliable
diversified
frankfurt
flagship
discontinue
pharmacokinet
simplif
warrant
weaknesses
inaugurated
ceramic
journal
uncertainties
arabia
disappoint
observed
slaughterhouse
amplifier
benecol
caused
ethanol
fisas
failed
gallerix
jvc
otto
psoriasis
pioneer
rantanen
sarantel
##maker
comfort
compatible
shifts
plaza
chicago
resignation
aggregate
spanning
spread
outdoor
telemig
feasibility
timetable
elsewhere
kauha
volunteers
browser
patterns
restaurant
refurbish
envisaged
authentication
sihvo
biofuels
southeastern
hampshire
display
satisfied
osuuskunta
graphic
pipeline
svenska
therapeutic
catalysts
oxygen
aleks
bhushan
bertrand
cgcbv
cjsc
cinema
coca
doses
ethernet
efo1v
fesco
fertilizer
garmin
hilton
hospital
ifrs
iittala
lkab
larox
lenders
leverage
mutual
munich
mitsubishi
mumbai
mentioned
nurminen
nembv
rakvere
rspo
srl
sriperumb
sensor
tortue
tunnel
vlad
village
vimp
varma
wilson
wagon
wife
##uokra
##jarvi
threat
angeles
##stream
prohibited
euronext
finieris
beverages
saudi
##owledged
exhibition
neudorf
nexbtl
marathon
enjoy
coagul
acknowledged
predefined
unsecured
helasto
agenda
accommod
interrupted
consortium
consecutive
physical
philippines
valkeakoski
raiffeisen
appropriate
scaffolding
desktop
dopplr
latvijas
gruppen
polytechn
affarsvarlden
pulkovo
automobile
waterborne
waterqueen
affectogenimap
liquefied
dispute
harvesting
jyvaeskylae
bulgaria
molybdenum
sriperumbudur
2m
2g
4mn
420
520
6mn
720
a6
ay
ax
aal
ail
afor
ahol
aalt
astan
axe
bb
b2
bj
bat
bil
bic
bent
bill
bad
bay
bow
bly
bra
bust
boss
berg
bisc
bps
bss
bjor
bern
batch
bcs
bbl
bath
brian
blog
btt
cf
cet
cand
cess
cow
cock
cater
cala
cern
cider
catch
ccs
cba
cele
caver
du
di
dn
db
dw
dish
dow
dial
dag
dip
dio
dib
dates
dair
dram
dosing
doring
e3
era
eag
eri
eron
e50
efi
epi
fen
fid
fia
fant
foun
flu
fix
fancy
felt
fold
filling
gd
gb
gor
gol
gear
gts
gate
gant
gpr
gsm
gather
ghana
hb
hp
han
hun
hus
hart
hank
hock
hint
hund
hack
halt
hame
hull
haven
ig
iet
icon
iii
ign
icel
jet
jim
jac
jari
jord
jaston
jsc
kh
kg
kw
kel
kot
kev
kust
kop
kri
kerm
kick
kpi
lp
lan
lion
lad
lod
lies
lag
lans
lak
lember
lock
lse
lake
losing
lcc
living
lots
lenn
lening
ml
mg
mas
mform
might
mix
malt
merc
mert
mti
nv
nm
nh
nic
nut
nia
nad
nts
night
nurs
nalm
neder
nissan
ntt
nils
ote
ovi
ostrom
ooo
ova
oasis
ohio
pd
pn
pes
por
pod
pts
pine
pak
pda
ports
penn
q3
qing
quar
rb
rod
rum
rog
rock
rational
rents
rink
raken
rush
risen
roro
rocket
rubles
ss
sd
ser
som
sas
sir
sul
sot
sok
sast
sure
sda
sna
sky
soci
slud
s60
sony
soph
tt
tb
tin
tit
tic
tell
tire
tens
tse
tata
tree
tah
tanks
taur
teva
tls
uv
um
ubs
umb
uutis
vs
vp
von
vit
vic
vart
vares
volog
vian
vib
vision
vide
vost
vii
vdw
wt
wi
wo
wol
wig
wim
wra
wire
wys
wars
wester
wider
xpress
yr
ya
yl
youn
yout
yli
yah
yty
zain
zah
zao
£lem
##ua
##ux
##uel
##tb
##tual
##tek
##time
##sen
##sam
##sko
##seller
##salmi
##iel
##ius
##ios
##iors
##iola
##iisa
##ijo
##dro
##dent
##dra
##dong
##down
##eil
##eem
##eki
##63
##ris
##rill
##rus
##rig
##rad
##rell
##rank
##rics
##rise
##rane
##rstar
##rinne
##fan
##f1v
##fication
##cm
##cp
##ces
##cul
##cell
##core
##cour
##cyc
##caly
##aj
##aut
##app
##aud
##azi
##oul
##och
##o1v
##ozh
##ofactor
##nu
##ners
##nos
##nits
##nusk
##vil
##vay
##voc
##vals
##voo
##bel
##ble
##bul
##bow
##bac
##bour
##back
##bind
##burs
##los
##lia
##lass
##47
##41
##400
##4mn
##86
##88
##mt
##my
##mon
##men
##mant
##mans
##merg
##mons
##yer
##yur
##year
##y1v
##yuan
##57
##51
##pev
##pac
##pend
##pite
##public
##hr
##har
##hen
##hall
##hard
##hang
##h1v
##hous
##haus
##held
##hden
##habil
##hdent
##k2
##ken
##kim
##kila
##kamo
##kull
##gb
##gement
##gart
##gence
##gree
##gged
##gvesta
##28
##200
##97
##9mn
##71
##wed
##wal
##wing
##wso
##wagen
##zzan
##qvar
##ju
##jon
##jat
##jek
##eri
##eric
##eria
##erts
##erating
##erate
##erical
##eristics
thank
therm
things
though
##inum
##inity
##inate
##inko
##inburg
##ono
##onev
##onlahti
##onaho
##onrinne
##esas
##ani
ing
inject
instruct
ingr
inorgan
inked
##ora
##orate
##orant
##orization
##ornia
##ared
##arit
##arus
##arts
##arket
##areness
##ener
##enet
##enos
##enad
##enonen
##enberg
##enzh
##endered
##atic
##atow
##atra
##atela
##roit
##roun
##roch
##rots
##alu
##ald
##alon
##aled
##ally
##alert
##alainen
##alinko
anch
angl
anode
##ioned
toy
tour
tourn
toward
towers
tobac
##ura
##uric
##uration
##urys
##uramo
##itas
##itect
##itures
##itting
##itted
##ilst
andhra
##omberg
##ominated
##asa
##asy
##asma
##asanen
##asury
##iso
##isl
##ism
##isations
##isse
##isyn
##ctors
##icom
##icel
##icond
##elity
##elve
##elecom
##elainen
##elcom
##eta
##eth
##eters
##etch
##etically
##ented
##entive
##enture
205
207
##sto
##stock
##stals
##stein
##rect
##reement
##revoc
proth
prohouse
proof
##illed
##illance
compare
##idek
##idates
fork
forum
forever
forese
##util
##utious
##utral
##utkim
item
itikka
fined
finding
finished
##olt
##oli
##olan
##oline
##ollo
##olina
##olester
##olozh
stx
stan
stad
sterv
stav
stars
stuck
sterling
iso
##pers
##perform
onwards
convin
##une
##unal
beat
##use
##uska
##iver
##ivan
##ival
##ivak
##ivstar
sah
sawn
saved
saa1v
##irad
##irja
##andic
##andri
##andmarket
##rome
##roma
##lew
shut
shad
shim
shell
shade
sharing
shrank
shenzh
ask
asx
asim
##osh
##osby
##osaari
##thrit
reb
reim
reject
reve
reward
reference
reijo
rehabil
##igs
##igator
##igible
##igung
##iglass
##uls
##uli
##uling
##ulation
##ulding
##ulics
##ulative
##chum
##charg
##chex
##chester
##chatow
##estra
##estions
##estrian
##iai
##ado
##adian
##adele
##ither
exit
exact
exempt
withdra
perox
permission
pertti
##uctor
##ucted
neutral
##ppup
##imir
##imore
alloy
albat
always
sue
suv
suy1v
suisse
salonen
incons
inclus
incurred
incentive
##otion
##otine
##otank
##otely
##otek
##otted
##rain
##raulics
mart
marko
marks
enef
encl
encour
whilst
mag
plx
plaster
plots
##evision
##evolozh
groep
##uard
profiling
##usta
##uma
##umcul
##ocki
##tsala
co2
coff
coven
cohen
acid
acac
accept
##aps
##apest
##apital
contents
predi
priit
prades
priced
##abin
##abela
##abasy
newest
newcom
produk
##ementioned
chf
chart
chip
chile
chose
chea
cholester
chrome
##agues
##agreement
##lander
##upe
unib
unbank
unless
unified
unaud
unicom
uniglass
##opist
##avainen
##avista
##avigator
2016
2014
2017
manty
manchester
mantsala
manavigator
##acel
##acle
##acles
correl
usman
servicing
oral
oras
orhang
##inea
eucaly
marketplaces
euro3
##elled
##amn
##amb
##amas
##amala
##americ
##istan
##istent
##istol
##istical
##istribut
##antly
##acteristics
##allurg
sep
seik
seina
seems
tried
trends
trh1v
adm
adams
periods
indic
expo
expire
expensive
expires
exposure
moor
mouse
##igned
abloy
ability
abram
age
agro
agents
##outs
##ansavi
boat
bofa
boots
bochum
##akirja
##riz
##ried
##riber
##rification
solely
solvency
solvay
##echten
deck
decade
decide
decker
decorative
applying
##angdong
weigh
buys
buck
##ptus
accel
accum
accident
accomp
##lik
##uga
##ugal
##uglas
##ances
##ancing
partih
partially
amr
amro
amex
ameas
dean
deger
degree
recip
##itioning
totaling
spr
spa
spent
spend
spending
spouts
##ifically
meant
meals
meo1v
mezzan
interm
interact
interview
interiors
anne
contractor
contractors
##onds
proves
proved
consent
consisting
consequ
intens
supposed
supplement
communal
leases
lewa
lehdent
television
104
101
managers
finances
banked
##ourg
earn
monster
##ova
##ovo
rely
##ology
##ensively
strips
brisk
bristol
empt
emphas
nok1v
technologically
##ube
metallurg
signs
signal
signaling
##ika
##ikko
paatela
preced
expecting
systemhaus
##owners
valuation
valmet
valves
valkama
delist
deleg
rao
##unds
productional
notably
notification
##ekapital
swing
swift
swaps
centers
centric
allure
allotted
projected
projections
##structures
##iba
companiesandmarket
approvals
128
125
129
1200
fee
feel
feet
constructor
##ermo
156
158
equival
election
elections
electrification
clerical
scra
scene
scf1v
scandic
190
192
191
1930
wellness
oneworld
capitals
twe
twist
twenty
twelve
directional
eur18
eur1bn
eur17m
30s
309
307
##ronic
##ronics
##ronage
##ronsalmi
##aterinburg
110
114
115
117
moreover
##urns
acted
actors
regard
regular
regulatory
termination
terminated
genesis
genetically
##uko
mediter
omeo
worksh
##venpa
growhow
desk
despite
146
142
141
14mn
retained
retriev
someone
##print
processed
processgu
##isco
handles
handheld
##holma
newswire
newsprint
canal
canadian
##arked
##engy
usd3
usd2
dealer
138
139
137
##axon
autotank
johan
jouko
peat
peigs
lamp
laine
laht
laasanen
laavainen
trace
carl
carries
carria
carroll
carolina
holmen
really
headed
headcount
##iteollisu
storms
storengy
leads
##weight
assa
assur
assess
arto
arcel
argent
arthrit
currencies
164
168
165
162
161
crush
loose
globe
elements
eligible
effort
efforts
frn
fray
franch
remotely
completes
completely
beta
beteil
facades
facilit
issuing
##teen
186
188
189
187
noop
perspect
optical
redistribut
##eneurs
steers
stead
stefan
basf
bas1v
##uden
##udun
##achi
##ostus
##altic
amounting
doing
doctors
douglas
throughput
releases
kausta
##kswagen
engineered
modes
vauramo
vaasa
##uces
flor
fluct
smelt
smooth
##eye
##arsaari
subscriber
fulfil
##vedere
applicant
applicable
discip
lats
lat1v
telecomworld
telecominvest
talking
talermo
grc
gran
gray
grupe
avc
purpos
purpose
portable
portugal
##grid
extending
extensively
negotiation
235
210
213
215
casual
volkswagen
compete
competing
competitor
reportedly
greater
##laim
depart
401
capacities
246
244
249
brokers
specialized
baltimore
sanitation
292
tyo
minim
eur22
eur27m
forming
formation
activation
activating
activate
activision
260
262
driver
funded
opus
opens
petroch
sitra
225
229
detect
detection
detroit
digicel
goes
goals
goodyear
path
patch
patja
patronage
##iskangas
focuses
city24
poles
police
##phuric
trades
lowering
royalt
enters
rautalinko
rautakirja
purchasing
belarus
belchatow
belvedere
inside
forests
forestal
saving
northland
northwestern
northwest
275
ebg1v
liisa
lippup
liechten
teollisu
entities
interests
posting
310
knows
mats
mature
matrix
sets
setting
exciting
cooperate
strengths
availability
logical
logging
restart
votorant
##istered
kyivstar
kyronsalmi
thereby
eur35
eur39m
eur33m
maintains
disclosing
ukmerg
ukonaho
##ecutor
strongest
strongly
generally
emir
emission
suburb
364
365
parnu
parlia
pulse
package
packages
rap1v
takanen
positioning
280
803
blast
gerber
effects
effected
creation
listing
eur45m
eur46m
eur416
eur400m
scania
scanning
automated
457
##icker
experi
chains
quad
questions
turb
turning
viable
##dsl
centralized
380
383
ideas
veidek
##rowave
eur55
eur500
bnameric
keyboard
keylog
keyword
simons
simmons
accountant
sanomawso
pohjolan
evp
evident
evraz
played
002
panels
trees
treasury
tonne
antti
antwer
antenn
platinum
offerings
presentations
membership
responsibilities
329
biobv
backed
backlog
cold
columb
parking
parkano
southwestern
governance
430
##kero
toolonlahti
reaching
attribut
privat
privately
indexes
authorization
authorisation
bestseller
callers
homeware
homeowners
multirad
surroun
##comes
##coming
eur64
eur63
shooting
requires
advance
advise
566
fuelled
geomet
gasoline
teks
innofactor
administered
397
495
apollo
button
dropping
tec1v
462
473
erp
erden
falling
fallers
licence
licenses
nyrstar
tenants
##fully
superstructures
bridgest
participating
platforms
innovations
benefit
901
files
flexibly
ways
##itutes
converter
convergence
meats
improves
improving
treatments
556
576
575
579
513
bread
skr
skat
skis
skandinav
winner
##efene
##annel
##annus
technopark
technoparks
1996
1995
narrows
414
538
53mn
harbor
ilmar
ilk2
nnge
altia
altona
300mn
659
denominated
gained
runway
routing
silver
visual
vacc
wirsam
##amps
impacted
fewer
streams
streaming
liquids
liquidated
barc
guinea
guangdong
honored
topical
promoting
promotion
eur75m
forwards
studies
students
studying
involving
commissioning
bioheap
adjusting
529
bidding
dilution
everest
microwave
radar
##joen
##inner
stopped
stoxx
confir
config
confident
confidence
weaker
weakened
introduction
introducing
artem
670
grapev
hoyer
hitting
karh
karvinen
limits
tape
tapio
tapiola
wait
wastewater
african
classic
vehvil
640
645
686
687
614
885
853
edge
edging
edita
mikkonen
actually
republication
063
084
diapol
freight
freenet
float
framing
populated
population
renesas
thomas
separately
explore
exploration
eur15m
585
5800
630
audi
auditors
bulk
bullying
cellular
duty
evening
irish
irrevoc
malware
victor
welding
welcomes
warehous
oriental
oriented
branches
feedstock
kaupun
modernization
identification
665
763
736
7327
890
8171
gaming
merrill
utenos
views
viewing
westpac
##generation
seppo
defin
happened
brewers
sheets
825
829
born
borl
border
citadele
categories
friends
pcb
possibly
sentry
##uppa
eur928
##imaki
intellisyn
approaches
features
typically
formerly
substations
surfing
surface
949
cableway
ftth
kaleva
kaluga
palmberg
snap
snacks
svp
svyt
walter
commented
characteristics
specific
specifically
eur12m
eur125
tracking
mineral
calcination
calculates
hydraulics
syndicate
speeds
speeded
motorcyc
municipality
bavaria
camera
durham
frost
fitch
kept
linking
n78
piece
veracel
virala
variant
##liner
behav
##uskiai
enhanced
plastics
priority
invoicing
recovered
relocated
repeats
regionally
blackstone
blackberry
certainly
guides
spokesman
permanently
individuals
691
985
e65
e61
lule
lassi
mastercard
trouble
trojan
tailored
voip
##urbed
eur86
eur80m
whitehall
resolution
interfaces
outsource
prepared
replace
replaced
replacement
foodservice
reflected
colleagues
favourably
bottles
railways
substantially
780
burning
deducted
dragged
dokumcul
e72
e71
heart
hearing
kito
kallio
molec
rolling
sunrise
sizing
##worth
inaugural
##atoid
##atoostus
proceeded
truck
expressly
boosting
heavily
megaw
tele2
climate
1987
architect
critic
kauno
kaunas
kauniskangas
cleaning
clientele
surveillance
geographic
favorable
sawmills
demonstrations
hydrogen
hydrocar
originally
recruited
recruitment
bakery
cdp
cdli
cautious
coscom
easy
michelin
n95
pounds
rsa
rs3
semicond
sporting
tablet
tablets
##obi
##4900
inspection
##energosby
ansa
problem
finishing
starts
##embourg
suffering
residues
sealed
seeking
expenditures
terminate
terminals
airbaltic
lihir
lihak
lihatoostus
entitled
entitlement
skogster
renovate
merchand
kilometers
occupied
territories
campaigns
bands
cnl
dinh
donations
dubna
dubai
egm
eaton
hoped
ipad
jarvenpa
kiruna
koskinen
koskull
libraries
mortar
owning
pellet
rentals
ranges
ranging
rosenlew
tanker
vuosaari
##eumatoid
##32m
complements
maritim
maxis
chamber
chambers
christmas
trygvesta
trials
adopting
budapest
investigators
norsun
sponsors
sponsoring
1023
reliability
diversify
19447
eur160m
holidays
assumption
discontinued
shareholdings
drugs
entreprenad
entrepreneurs
excellent
excellence
warrants
collective
selections
california
succeeded
copyright
relationships
jpmorgan
ceramics
journey
disappear
slaughtering
awareness
bahia
celular
ciders
cabin
cabot
drying
ecb
eye
eyes
galvan
hansen
judge
judgement
kolk
kronor
kostroma
kraftliner
lidsko
lundmark
mirabela
miracle
odell
ostro
ostrava
papua
rfc
rheumatoid
roundtable
suspect
tanzan
tube
tubes
waterm
##ormittal
prosecutor
progressed
style
stabilised
constantly
sabah
saarelainen
sharply
reinfor
rebuild
atomic
unveil
adequate
adequacy
exploits
capture
amendment
amendments
legal
industriekapital
phosphate
allocation
allocated
scotts
highlight
highlights
repayment
trailer
distinctive
issuer
issuance
smithfield
opinion
opinions
believe
believes
literature
entirely
entirety
slowed
evaluation
evaluated
shipyard
shipyards
uruguayan
myllykoski
advertisements
collaboration
pietarsaari
luxury
luxembourg
tuomas
fabrication
magnetite
kalnapilis
kalnapilio
a350
bosch
bodies
bloomberg
crystals
dvd
destia
dimensions
dissol
eli1v
ghz
gunpoint
jorma
jensen
kidna
kra1v
kansas
lesprom
lenenergo
lasse
lumene
loviisa
liability
lynch
nielsen
nkel
nitr
pedestrian
pivo
pankki
peltonen
ryobi
rpk
ropax
rubber
rostelecom
sodra
sveza
tauro
tumkur
tornio
vtm
velta
write
##dren
##listed
inception
tolerated
proteins
prolongation
israel
conferences
williams
shelters
ashley
reiterated
examining
neighbor
alpina
##otyp
cooling
contrast
children
cheapest
ordabasy
adaptation
boomeranger
debenture
sparebank
interconnection
helsingin
struggling
brasil
meteorology
prepare
impressive
closely
overlaid
undertak
workflow
retirement
francisco
basketball
1744900
avesta
lifetree
patricia
robust
roughly
savonlinna
lietuva
settlement
restrictions
slashed
respondents
shipbuilder
administrators
filmiteollisu
illust
article
bulletin
wholesaler
inflation
seminar
languages
mortgage
pharmacokinetic
simplify
journalistic
disappointment
comfortably
kauhajoki
refurbishment
aleksandri
hospitals
vladimir
vimpelcom
##uokraamo
coagulant
accommodate
polytechnics
aforementioned
astana
bbh
bentos
blyk
buster
bosse
bjorn
bernhard
bathroom
candidates
cessation
catering
cerner
celebr
caverion
dnb
dwt
dishes
dagens
dioxide
dibba
dairy
eronen
fidelity
fia1s
fluid
fixing
gbx
golden
gantry
gprs
hbos
hanna
hunting
husqvar
hockey
hundred
ietf
iconic
iceland
jordan
kevin
kustannus
krippl
kermansavi
ladle
lodged
leningrad
mformation
mercator
mertano
nicotine
niam
ntsb
nalmefene
nederland
ote1v
pesonen
porvoo
pakistan
qingyuan
rbff
roger
rinkuskiai
rakennusk
rocketed
sdm
somaxon
sulphuric
sotkamo
sastamala
sda1v
sludge
tinyur
tauras
tlsn
umts
umbrell
vsevolozh
vicinity
vartan
varesvuo
vologda
vianor
videos
viii
wimax
wysocki
warsaw
westerlund
young
youtube
yliopist
yahoo
yty1v
£lemiste
##ekijat
##rusion
##ranean
##bindelsen
##bursed
##jonki
thermal
##onevuokraamo
injection
ingredi
inorganic
anglers
tobacco
prothious
foresees
convinced
shimano
shenzhen
asimilar
reimbursed
rejected
revealed
##igungs
exactly
peroxide
inconsistent
inclusion
enefit
enclosed
encourage
plasterboard
coffee
covenants
acacia
predict
pradesh
produkt
cheaper
cholesterol
unibrew
unbanked
unaudited
correlation
usmanov
orhangazi
eucalyptus
seikku
seinajoki
abramov
accomplish
partihalls
degerfors
mezzanine
consequence
lehdentekijat
metallurgical
delegation
companiesandmarkets
1930s
mediterranean
workshop
processguide
lahtinen
carriage
carrollton
arcelormittal
arthritis
beteiligungs
perspective
redistribution
telecomworldwire
purposes
petrochemical
lippupiste
liechtenstein
teollisuuden
votorantim
ukmerge
parliament
veidekke
bnamericas
sanomawsoy
antwerp
antennas
columbia
multiradio
surrounding
erdenet
bridgestone
ilmarinen
ilk2s
bioheapleaching
grapevine
victoria
warehousing
817198
intellisync
svyturys
dokumculuk
architecture
semiconductor
jarvenpaa
1944757
lidskoe
tanzania
filmiteollisuus
husqvarna
rakennuskonevuokraamo
vsevolozhsk
wysockiego
yliopistonrinne
050
1st
1bn
2bn
3i
3d
3c
3q
3pl
3bn
4w
4q
4th
4bn
5mn
6m
650
8th
8gb
97
950
973
970
aa
a1
aer
aar
aro
ast
aol
aul
aqu
aber
ader
apt
aub
auss
aps
aks
axes
aero
a32
ailing
auction
aava
a80
akers
aura
bv
bm
bk
ber
bon
bom
bct
bol
bia
bts
boun
bore
bout
bog
blu
bock
burr
bower
bark
boll
bree
burg
bord
bold
boni
baw
binding
bao
bae
berling
bleaching
burns
cb
cw
cis
cul
cay
cpp
cod
cts
cag
cup
cip
cant
cue
clu
cere
cuk
cision
cps
cph
cfr
cds
curs
cyc
craz
cto
cinc
celt
catal
cush
cath
cakes
cee
cables
curbed
dt
dd
dh
dz
dat
dal
dct
dill
dol
dir
dul
dop
dso
dated
dall
dave
dere
dose
dual
dov
dens
duss
dise
duk
dark
dax
dover
dma
disk
dump
dental
damp
dcs
draft
dash
drought
dahl
dmas
dkk
dorm
duck
darts
dried
dinner
ei
ee
ea
e4
eh
ein
ere
eter
eig
ead
ets
eber
elo
ease
eio
eoss
elet
emm
eric
e20
eph
easter
epa
eou
eij
erik
eides
e90
e51
either
fc
fh
fg
fz
fon
fem
fus
fly
fim
fra
fear
fum
fki
ferg
fight
fits
fats
fcc
flying
fox
fenn
fash
fencing
finger
gs
ga
g2
gw
gil
gill
gem
gir
gust
gap
gab
gart
gav
gog
gans
gri
gib
gram
gage
gord
gama
graz
gsk
gaw
griev
g400
gmt
guard
ht
hd
hr
hf
hor
hed
hat
hur
hut
hle
hay
hev
herv
hap
hant
hang
hire
hual
hik
hse
hence
hark
hss
hert
hits
honda
hired
hano
hdi
hmi
hdo
horn
hurt
hackers
horm
hiring
hangas
heter
ia
ion
iis
iiv
ily
ira
ipt
igen
isto
js
ji
jm
jer
jal
jut
jot
jort
jack
juuk
jason
jeder
jaw
jets
java
jams
juri
jamn
kl
kp
kin
kor
ken
kat
kur
kent
kiv
kers
kia
kod
kart
klo
kase
kard
kult
kort
kft
kata
kark
kve
kala
korp
komm
kou
koff
kenn
kedia
kurt
kangas
lr
ly
lin
lor
lil
lis
lut
lap
lac
lip
lions
ligh
lank
lure
lub
luk
lonn
lars
lunch
lord
lives
lump
luce
lived
lows
lists
lulu
lcs
lgl
lane
lcd
lxe
luna
lmt
mt
mi
mp
mur
ment
mig
mce
mso
mist
moss
mass
muk
mys
mines
mwe
mud
miss
mline
mss
mda
murs
mcc
melt
mold
mena
miles
mcal
mba
mms
mcd
mittal
muling
nt
na
nj
nan
nst
nter
niv
nod
nap
nop
nations
nli
nug
nse
nte
nne
naus
nii
nanch
ncc
nlt
niemi
naim
njoki
naur
nago
nenonen
oe
og
oz
oj
oes
ole
och
oly
oxim
oka
oks
oja
oems
oef
oats
obor
oao
pf
pp
pec
pig
pest
pad
pies
pag
pist
pact
pave
pure
pose
pond
pbs
pour
pens
pian
pates
pence
pys
poll
page
palf
punch
pge
pisa
pump
pna
pink
pty
pending
piles
puro
panda
pocket
pensions
qi
qat
que
qcs
q400
rv
rl
rk
ring
rid
rus
rul
ray
rated
rain
rice
rif
rbs
rov
rik
rib
ruk
rack
reng
rober
rory
rvi
rann
rii
rmb
ranks
rana
rinne
rcp
rani
rally
sf
sb
son
ses
sed
sis
sess
sare
sard
sech
sank
sour
song
sint
sft
sight
sata
sark
seng
sina
ska
sari
sled
sne
sick
sorts
somet
semi
sfi
sensing
somon
sulf
sull
suction
session
td
tn
tl
t2
ton
tes
tet
till
tid
tus
tag
tip
tver
tase
tast
tend
tass
tps
tents
tiss
tari
tester
tame
tco
tumb
tarmo
taf
tukka
tkk
tatu
tiled
telling
tesis
teter
tutkim
tune
ui
uf
uo
uh
ug
uz
ues
uus
ule
uab
uio
uwe
umo
udle
ufa
ustj
ucell
vn
vv
ves
vor
ved
vil
vish
vos
voc
vap
vast
vint
vek
viz
vata
visc
vark
vie
vina
vert
visa
vga
virent
vasts
vivid
vash
vana
veli
vantage
vocol
vista
vcp
wis
wap
wore
wors
wint
wik
wise
wack
wisc
wax
wels
wisa
wages
wench
women
weck
wyn
xf
xp
xer
xvi
xns
xdsl
yu
yv
yh
yin
yar
yen
yst
yell
yok
yam
yard
yak
yank
yek
yea
yhty
yili
zu
z6
zl
zg
zan
zand
zap
zip
zte
zoo
zep
zeal
zero
zolt
£lo
¬m
®l
®com
®cs
##uf
##uy
##uz
##uis
##uut
##uot
##uum
##uate
##uant
##uable
##uov
##uwe
##uote
##uished
##uitive
##uisa
##uori
##uered
##uhio
##uador
##tn
##tx
##tz
##tes
##tal
##tion
##tic
##tun
##tiv
##tig
##tay
##tev
##tum
##tver
##tail
##tary
##t1v
##tight
##tower
##tage
##tration
##tton
##takes
##turo
##tgart
##turns
##sb
##sy
##sq
##sst
##sul
##ski
##section
##skar
##sno
##sner
##self
##iet
##iers
##iest
##ipp
##iate
##ians
##iance
##iary
##iek
##iments
##iction
##ihan
##iya
##ippi
##ijoki
##iature
##de
##din
##don
##dor
##dis
##det
##div
##dig
##dly
##dell
##dax
##dles
##deck
##dno
##ei
##ew
##eat
##eing
##eit
##eel
##eet
##eag
##eist
##east
##eering
##eholm
##ebt
##eger
##e10
##eered
##eimo
##eemed
##0s
##050
##09m
##011
##063
##rj
##ran
##ror
##ril
##riv
##rum
##rated
##rice
##rors
##rend
##rens
##rene
##rative
##rels
##rises
##rically
##ranta
##rupp
##rze
##runn
##ritional
##far
##fit
##fish
##fos
##fly
##fare
##fts
##fab
##fate
##flo
##fall
##fast
##fri
##food
##fund
##fron
##fix
##falt
##found
##fah
##fits
##felt
##firmed
##fitable
##finger
##fonds
##few
##col
##cop
##cant
##case
##cock
##cular
##cara
##cker
##cramo
##cier
##ciation
##cule
##cze
##casters
##aen
##aid
##aare
##aire
##aments
##aunch
##aurs
##aited
##auty
##oa
##oh
##oon
##oen
##oil
##oel
##oid
##oad
##obs
##oinen
##obank
##oope
##oavista
##np
##non
##nan
##net
##nay
##nav
##nki
##nie
##nible
##name
##nside
##niemi
##nunta
##nishing
##v6
##vy
##vis
##vet
##vec
##vos
##via
##vine
##vell
##vist
##vli
##v1v
##vision
##vola
##vonen
##vinc
##viking
##vention
##vada
##vana
##bi
##bb
##bas
##bet
##bid
##bir
##bia
##bum
##bell
##bile
##banc
##bond
##bock
##bov
##bone
##bund
##bek
##bass
##bina
##bons
##balt
##bling
##bits
##bles
##bably
##body
##bano
##beck
##bequ
##bana
##binding
##bury
##b24
##babs
##barked
##lf
##lm
##lat
##lst
##lers
##lay
##lim
##lot
##lare
##lav
##lich
##lock
##lone
##lace
##lised
##lination
##lberg
##lists
##labs
##lvan
##loma
##38
##39
##320
##83
##87
##800
##84m
##880
##ml
##mw
##mat
##mel
##mith
##mot
##million
##map
##mag
##mations
##mard
##mout
##mend
##muk
##mous
##mach
##merc
##mium
##mises
##mson
##missions
##mela
##masters
##monds
##mei
##yo
##yv
##yol
##yle
##yce
##yev
##ypt
##ystem
##yware
##ymin
##yva
##yhti
##yhtyma
##yeg
##ydro
##yfully
##yde
##54
##53
##59
##pc
##pat
##pal
##pus
##pir
##ple
##pay
##part
##pine
##pans
##pak
##pace
##park
##pah
##pected
##puro
##potek
##he
##hk
##hur
##hem
##hle
##had
##him
##here
##hable
##hood
##hma
##hrow
##hmo
##hasis
##hony
##hava
##hatt
##hwed
##hyde
##km
##kor
##kus
##kter
##kia
##kav
##kok
##kam
##kose
##kens
##kward
##kola
##kari
##kainen
##kins
##kusk
##kham
##kato
##kakoski
##katu
##kdr
##khra
##kono
##kiso
##krupp
##gs
##gas
##gill
##gol
##gers
##gow
##gment
##gip
##gue
##gates
##gie
##gps
##ggest
##guments
##gsm
##group
##gulatory
##26
##29
##250
##25m
##2lan
##94
##95
##91
##900
##90m
##xm
##xess
##xik
##78
##79
##77
##773
##742
##741
##13
##15
##12
##19
##10m
##13m
##win
##war
##wic
##went
##wear
##wart
##well
##wall
##wich
##wares
##wse
##wost
##walt
##wind
##walm
##wires
##warding
##wberry
##zo
##zy
##zz
##zed
##zing
##zel
##zow
##zman
##zens
##zse
##zef
##zbank
##zger
##zeg
##zny
##zinvest
##zuel
##znits
##zfah
##znan
##qia
##quar
##qav
##q1v
##qvist
##jal
##jing
##jav
##jver
##joun
##jans
##jning
##jack
##jamaki
##jury
##jeri
##jamas
##jeholm
##jlf
##erated
##erpt
##erio
##erever
##erous
##erie
##erzbank
thor
tham
thail
thys
thiev
thicker
thinner
##ini
##ino
##inin
##iners
##inest
##ince
##inating
##inqu
##inations
##inational
##inage
##inished
##inisk
##inium
##inna
##inkyla
##iniemi
##injarvi
theod
theft
theba
theutil
theagreement
thelat
thegps
thewar
##onit
##onom
##onet
##onut
##onia
##only
##onum
##onio
##onka
##onium
##onpa
##esigned
##eszse
##anb
##any
##anter
##anth
##anim
##anac
##anie
##anah
##anza
##anlahti
##anamb
ink
inch
inver
inge
inga
inha
inget
input
ingen
inreg
info
inger
inking
inhib
inrik
inkinen
inbound
ineta
injury
##oren
##orit
##orec
##orter
##ording
##orated
##orous
##orge
##orically
##orption
##arb
##arer
##aret
##arst
##arder
##ario
##arian
##arrol
##arainen
##arova
##edin
##edged
##edrik
##edlander
##enas
##enag
##enary
##enced
##eniemi
##eneration
##enlinna
##enlos
##enavista
##enrated
##enfonds
##enzy
##enario
##ati
##atro
##atel
##atem
##atus
##atos
##atts
##atile
##atable
##atov
##atics
##atures
##atama
##atuit
##atti
##atta
##atnam
##ativity
##atrix
##atius
##atisl
##roi
##roe
##roid
##roem
##roft
##rocomp
##robor
##rogen
##roxide
##rotek
##rofit
##ali
##alat
##alit
##alid
##alem
##alus
##alia
##alab
##alue
##alable
##alone
##alination
##alipal
often
oflem
of200
ofcramo
ofbody
anas
anra
anjal
##inge
##ingate
##ingbor
##ingness
##inguished
##ionals
toil
toiv
topp
topt
tops
tomm
topped
tosh
toky
toxic
tosno
##urec
##urast
##urry
##urable
##urbs
##urements
##urized
##urrect
##ito
##itis
##itel
##itus
##itations
##itov
##itely
##itary
##itates
##itage
##itative
##itinen
##itators
##itici
##itto
##itude
##itlan
##ilk
##iler
##ilies
##ilated
##ilater
##ilever
##ilings
##ilience
##ilto
##ilsk
##iljan
##iljonki
##ilinjarvi
andre
andri
andling
andrew
android
andalus
##omo
##omes
##omed
##omic
##omos
##omens
##omotive
##ombina
##ominium
##asion
##asia
##aski
##asable
##ascan
##asitt
##asgow
##asurable
##isi
##isj
##isor
##isas
##iset
##isch
##isors
##isition
##isational
##isite
##isons
##iska
##isva
##isms
##isfactor
##isnki
##isanlahti
##isatama
##ctated
##ctif
##ctuary
##ctures
##icem
##icul
##icad
##icial
##eliv
##elia
##elect
##elop
##elph
##elements
##elago
##elny
##elprom
##elux
##elovo
##eload
##ete
##etz
##eted
##etag
##etres
##eterm
##ette
##ethan
##etanen
##etooth
##etonka
##entas
##entee
##enteen
##entenary
comte
20m
##ston
##stow
##stall
##stable
##stood
##stones
##staged
##steem
##stalert
##stacles
##republic
##reciation
proper
proactive
prohas
projek
probably
##illi
##ille
##illy
##illip
##illisch
comply
compag
compact
compass
compound
complying
compiling
compuls
compnay
eurib
##ida
##ido
##idy
##idon
##idas
##idth
##idenh
##idjan
##idenberg
ford
forem
forth
forging
forwarding
##eces
##econd
##ecka
##eciba
##utu
##uti
##utes
##utic
##utari
##utusk
##utana
##utaniemi
##utosh
##uttgart
ita
itg
itun
itell
itala
itkonen
iterating
itonut
finans
finds
finale
finton
finlan
finbow
fincant
##oly
##olz
##olut
##olated
##olli
##olka
##olars
##olto
##olulu
##olvency
##olarit
##olteen
stt
st1
sted
sten
stem
stig
stev
stich
stave
stere
stov
stuk
stability
stole
stena
stahl
sticks
stamps
stq1v
stroi
stuttgart
##emo
##emarket
##emtn
##empus
ise
isk
isop
isps
isms
##perf
##perous
onod
onboard
onstar
onemed
conve
congl
convinc
##unen
##unov
##unala
##unto
##untay
##unlace
bear
beating
beein
beaut
beauty
beanie
##uson
##uses
##usiness
##usund
##usages
##usanen
##usias
##usalem
##tery
##terase
##terior
##terdam
##terworth
##ivo
##ivion
##ivation
##ivay
##ivies
##ivate
##ivost
##ivisto
##ivaniemi
sac
saig
saav
sauk
saari
saha
sacan
saima
sains
saku
sailed
sadam
sakari
saunala
sausages
willich
willingness
companys
##irled
##irainen
##irta
##iratory
##irnside
##irstalert
##ando
##andy
##ander
##anding
##ishna
##ishyv
##isholz
##lein
##lead
##lewe
##leka
##leyc
##leva
##lejo
##lehti
##leged
shish
shav
shore
shock
shse
shane
shelf
shots
shift
sheks
shiel
shared
shivak
shdsl
shuwe
shanah
shorter
asm
asok
aside
asks
asah
asmo
ascs
asmi
asfalt
##osk
##osch
##osia
##osop
##osively
##osalu
##ositioning
##osaurs
##osnible
##oslav
##osystem
##oszow
##the
##thes
##thers
##thouse
##thnia
##thusias
reel
reform
reft
refer
reka
reels
reaff
reva
reopen
rewards
reactive
rebound
reiljan
rectif
reisholz
##igo
##igent
##igated
##igger
##ully
##ulating
##ulase
##ulpt
##ulse
##ulator
##ulled
##ulutusk
##cher
##ches
##chen
##chment
##chard
##check
##chison
##christ
##cheted
##estown
##estyle
##iainen
##iaasia
##aded
##adis
##adline
##addle
##adox
##adkov
##adny
##advor
##addin
##adelph
##ayi
##aying
##essors
##essful
##owed
##owment
expor
exist
exert
exists
except
extern
exchang
exporters
exterior
##mentor
##menting
withviking
peri
perth
perch
pertt
pervor
perlos
perpend
perkono
##ucts
neya
nekil
neither
nefar
nevada
nepal
hasten
has80
##ppo
##ppage
##ppling
##pponen
##ppeen
##imi
##iman
##imisto
##impro
##imeters
##imatel
##imilk
##imetres
operatives
alter
alab
alber
alik
alise
alte
alfr
alco
alakoski
alpro
alaj
alerts
aligned
alholma
album
almat
alleged
aladdin
finns
finneg
finncomm
finnfund
##ods
##odal
##odies
##odities
##odeled
##odorization
##ects
##ectrum
byline
bypass
bylander
suur
suist
suov
suonen
suited
suitor
suihko
sufix
sukhra
suggest
suutari
suunto
salt
salok
salov
salton
saloni
salmi
salminen
salvor
at8
atec
atul
atvi
atlas
netant
netact
netwe
netcom
netted
neteller
netbook
netapp
incident
inculding
inclination
##ott
##ota
##otel
##otable
##otinen
##otting
##otainment
##raven
##raining
##rack
finnishness
mara
maras
marek
marie
marina
marily
marsh
marta
marjo
markka
marinated
marela
martti
maruy
marski
mariet
maruti
enp
enex
encomp
enthusias
mnc
wheat
wherever
maart
maine
maase
mamm
mapping
maatal
maih
maija
maihan
mazz
maatta
maingate
maemo
plum
plug
plates
plung
plains
placement
pledged
##evelop
##eville
grodno
millions
##uste
##ustri
##ustutkim
##umer
##umar
##umen
##oco
##ocare
##ocast
##occo
##iala
##tship
coat
coax
coher
coord
coke
coker
coordinated
coasters
cogeneration
cobalt
##000
##002
acs
aca
acni
ac800
acanb
acando
##erved
##ervative
##apix
##apaja
##apakoski
##apatnam
##apolarit
contest
contex
contempus
prere
pride
prici
prnews
wastes
washable
##abi
##abase
##abyt
##aborated
newport
newark
newfound
newbury
chu
chs
chl
chop
chase
chore
chich
chely
chik
churn
chass
chipping
chipped
chaim
chips
cheer
chuck
chilled
cheered
chirnside
##artio
areva
servis
##agar
##agement
##agree
##ques
##quet
##quot
##quoted
##quered
##quenced
##quisite
unlo
unli
unman
unfor
uncon
unco
unr1v
unify
uncomm
unbro
unpro
unkn
unbel
unikko
unlisted
unriv
unlim
unanim
unilever
unstable
unimilk
unquoted
##berit
##berus
##berland
##berman
##berga
##berty
##opi
##opro
##opard
##opio
##opher
##opolis
##opoli
##opoly
##opartio
##aves
##avel
##avant
##avour
##avery
##avaara
##avisto
manip
manhol
mangan
manned
manner
mansi
manturo
mansner
manhatt
##kets
##aco
##acom
##acent
##acao
##acuate
corner
corrup
corners
correct
correns
corrobor
usp
usual
usko
usage
usually
##mped
##mpic
##mphony
ores
ornav
orkola
orchard
##inee
##inez
##ineken
helir
helok
helps
helmet
helisnki
helander
oyname
##lof
##lov
##loid
##lough
##loons
##lokoski
##kiint
##kija
eua
eukor
marketed
groupe
productive
euro0
euro60
euro73
europolitan
euro86
euro200
eurobond
euro26
euro742
##ipy
##iples
##iprod
##ipitation
##iprice
##ipino
##ipelago
##verine
##elli
##ellite
##ellskar
##okem
##okki
##okons
##okatti
##okasitt
##amin
##aming
##amus
##amies
##amart
##amax
##amless
##amanen
##amming
##ameters
##istore
##isture
##istinen
##istral
##istically
##isticated
##istently
##isturbed
##anty
##antity
##antages
##antaht
##antrack
sharepoint
##allel
ups
upli
upset
upload
upstream
upcoming
upfron
upstaged
2008public
buses
resin
resort
resorts
reshu
resett
reseller
resourcing
resurrect
resilience
##uext
invenerg
invitation
invalid
invitations
seem
seah
sepa
seeder
sewer
seemed
seoul
sewed
seism
seudun
sehk
seitov
seidenberg
sequenced
seamless
##ounce
##ounding
##ighters
trent
trim
true
trilater
trigger
##dergart
adr
adate
adak
adult
adapter
adanac
adidas
devalue
quarterended
##days
indo
indital
indication
indebt
indigo
expense
expired
mou
moisio
moody
moham
moves
mooring
moulding
moisture
##ignment
offenburg
abu
abilities
aboavista
abidjan
agj
agent
aggress
aglich
agitators
##ogo
##ogating
##ogram
##ogues
##anssi
boy
boot
boyc
bovine
bohem
boiler
boomed
boston
##astic
##astein
##ffled
##ffles
##ffton
##ffield
##aka
##ako
##akon
##akso
##akko
##akari
##akarit
##akran
##akkam
##akapatnam
##ichannel
##riot
##luent
##luence
solo
solel
caps
capite
capcom
capita
capitel
decor
decisions
declining
decades
declare
decalit
appla
appliance
appreciation
##angible
weber
weert
##ankoski
##therapeut
000063
buko
buenavista
##resa
investles
investrend
investinest
nortel
normark
norvest
norilsk
##ptacles
##ioinen
##ioural
##iovas
##ioenfonds
##ructures
##lifi
##ancies
partial
partition
##orsk
##orsement
ams
amid
amber
amending
amster
ambul
ammon
ambass
deer
deere
deka
dege
deemed
depress
degrid
degeneration
deadline
deodorization
heir
heated
heights
heind
hepat
heineken
recov
recari
recalling
recession
recalls
reclaim
recoil
recording
##rying
##itioners
firstquarter
firstalert
totally
spc
spark
spite
spars
spaces
spots
sparks
spyware
sphere
spolka
spunlace
spectrum
technip
technically
##ifies
##iflex
##ifunction
##ifully
2006a
##ailing
##ailis
meal
meik
mejeri
interoper
interchange
interbank
interference
intertek
intersection
interdig
intervention
interbanc
interavant
symant
syrj
systeem
symphony
out1v
outpl
outgoing
outright
outbound
outperform
outfits
annivers
anneli
annvik
annulled
##onde
prove
proving
provisions
province
##ulty
consulate
conspir
conservative
securing
secret
intend
intub
intention
intrig
intuitive
intraven
intangible
commits
commencing
commerzbank
commanding
commodities
lei
leif
leht
legr
lext
lehti
leban
leaching
leasable
leaves
telia
telek
telco
telcont
telgu
telpak
108
107
10th
109mn
comparative
comparatives
comparison
comparisons
managment
maks
makeover
makuisa
financement
financings
banken
##ourals
##ourful
##endal
agrees
agreeing
earning
earns
mono
monate
monta
monetary
monosp
montev
mongol
monroe
monopoly
##ovina
industria
relation
relating
reliance
relaunch
relinqu
relacom
##management
##ningar
##ensis
##ensmith
strive
stretch
strelny
straddle
stressful
stripy
bruss
bright
bruk
bruce
brink
brats
brno
brista
bricks
bratisl
bretag
acquitted
corporations
##onging
empty
emphasis
empresa
nok16
##intosh
unite
uniting
custody
##ublik
##ubarb
##forbindelsen
##ponement
pool
poznan
pojlf
customs
customized
phishing
phoen
phillip
employers
meter
metric
metrics
signature
signatures
signifies
##iky
##ikoinen
##ikkose
##ikarainen
##ikatos
##ikokki
##ussen
##ussalmi
paij
paivaniemi
paavel
preference
prefab
transit
transplace
transfers
eleven
elekter
##oney
##owner
mobileid
valio
valve
valga
valuable
valdor
reportable
delha
delta
race
raab
ramp
raha
raiso
rauma
rajamaki
raffles
##undy
##undai
percentages
noting
notified
##eka
swot
swoope
swirled
centimeters
allonen
subsequ
subsidy
##struction
accordingly
sought
sofa
soaring
soared
soosalu
##ibel
##ibia
##ibration
impair
imputed
implies
impulse
124
123
127
121
12th
12mp
feels
feeder
feeling
correspondingly
constructed
constructive
plantations
addus
addiction
154
151
15us
15th
15mn
equities
equaling
electrow
clock
claus
clicks
cl51
clamps
divide
ourmach
scout
scala
scored
scoring
scorec
scenario
scalable
sculpt
scopi
scamming
scantrack
##izes
##izace
##uldsch
##working
193
19mn
1920
1950
1910
1960
1973
197mn
190mn
1970
1954
1978
wellbe
wellmon
wellingbor
capitalize
##ergo
##erger
##ergen
janis
janno
janhonen
twice
directive
directory
eur120
eur16m
eur11m
eur182
eur100m
##ubled
305
30bn
downgr
downstream
downturns
11m
119
117mn
woro
worn
worm
wording
worried
worrying
ends
endowment
endustri
endorsement
nordalu
overnight
overtime
overcharg
underutil
underperform
underweight
underwent
understood
underperf
##adehyde
##assa
##assing
startup
acts
regal
regina
regulated
regulates
regener
regeneration
planmill
paperlin
papermaker
highway
highrises
locate
locator
locatrix
locomotive
geneva
genius
genvec
##uksen
medve
omena
omitted
worker
workday
workout
workfors
##venia
##venainen
##venno
##venergo
grows
boardman
##akeyhti
desarrol
desalination
samuel
continually
seconds
148
149
147
1411
retain
retired
retiring
rettig
retrofit
##prises
counts
hands
handli
handoff
handler
handlers
announces
twofol
252
251
2500
25cm
25gsm
##airah
repo
repair
reprod
repairs
repaid
repositioning
newsroom
newswires
canned
canvas
cannon
largely
##yssey
usd0
usd4
usd5
usd6m
usd90
developments
preserved
dealership
generator
generators
estimations
132
thirty
thirteen
##ously
##koex
autonom
joe
joined
joyfully
jozef
peer
pehu
peuge
pequot
timeless
laut
laws
lahden
laitinen
laisi
lappeen
laamanen
laakso
designer
designing
designation
designated
traced
trained
trains
traces
tracker
travell
trainee
carmaker
carrots
carpark
distinguished
realize
realistic
realpro
realtime
realignment
heading
headline
softball
counties
countdown
##iteeli
storm
stored
storing
##overed
intouch
arn
arvo
arbindelsen
arbid
arguments
arxik
arenas
arques
annualised
166
163
169
167
16mn
cruc
crash
crude
loop
loud
loyalt
louis
##operation
ell
element
elite
elimaki
elqav
elaborated
effluent
fruit
fredrik
frenzy
fradkov
friman
remind
remarked
remodeled
costly
costanza
costumer
betoni
betonit
facing
faculty
numerous
poser
posed
plccomp
mediaphones
##teishyv
180
184
182
18th
18mn
1862
180mn
noon
noise
noud
nothing
noa1v
nobel
noora
person
persistently
##htam
opting
optiflex
reding
reducing
redeem
reduces
redeemed
redesigned
redeliv
redevelop
##onsin
##armaceutical
steek
steps
steady
stealing
stewart
electronically
bases
basel
basement
bascule
##uded
##onne
seller
##kaa
sections
##ached
##achers
##achio
##alto
doors
doering
doob
dozen
doctor
dohle
dozens
instance
insteel
##issier
##issippi
billionaire
kaare
kaaja
kahonen
kaarst
kaisanlahti
kaido
kaivo
maya
mayaw
maybe
##ksson
##ksberg
prevention
prevailing
176
173
17m
175
1700
17mn
1750
177mn
179mn
jung
junction
modal
modem
modems
modification
modify
moderate
ltda
turntable
vahur
vaalipal
##ricants
mostar
strategically
novotel
##ucation
##ucky
aspiring
aspects
aspokem
flies
flock
flange
flsm
flurry
flavour
smt
sms
smarket
##eyer
##lication
##arsson
distributes
distributors
distributable
355
351
3539
furusund
furlough
glad
gloss
glori
glasgow
ameriprice
disclaim
discovered
latta
latvenergo
##maa
##mapped
talotek
##space
##rolainen
505
501
50mn
50mw
grill
grand
grate
grip
grann
gratuit
noncore
nonbinding
##201
##20xm
retailed
retailing
avi
avista
avalon
avoid
##grp
extent
extrusion
##oteket
steelmaker
felled
powerpl
powerless
##eaux
negotiate
negotiated
236
230
232
239
237
2310
23002
218
219
217
2100
2130
cases
casper
cutter
volvo
voltage
volotinen
competency
competitions
competencies
partnering
grease
greensmith
##convers
##construction
##laakarit
theyre
depend
depends
depots
acquirer
408
402
409
aiming
capacitors
measurements
2424
broke
brock
broking
browse
brothers
follum
lifts
lifestyle
speciality
specialised
specialization
specialize
specialists
becky
beckham
balti
sanna
sanitas
sanyo
sanctuary
sanayi
significance
internationalised
internationalizing
1000
290
298
297
291
2900
29mn
2982
milled
millhouse
millilit
millimetres
materiel
tyred
tyumen
##ariev
concili
expandable
industrialization
industrialisation
industrialsq
demograph
demolli
demerger
lays
layers
mind
minera
minivan
miniature
minutes
eur26
eur24
eur29
eur27
eur21
eur25m
eur230
eur29m
eur250m
eur297
forms
formal
formations
formwork
formadehyde
activated
activeness
materialise
266
2600
2610
267mn
2659
drivers
drillisch
fundament
opk
opna
petri
petition
petrol
petitions
petcore
situated
sitronics
schind
scheck
schmard
schwalm
scholars
schuldsch
mainz
mainor
mainstream
221
22us
detected
detached
dig1v
gohr
patents
patrik
patient
pathana
patriz
pays
paying
payout
payphones
paychex
paycheck
##ordable
##iskes
airtel
airways
airvana
airspace
citymarket
pole
pollex
polya
polyol
politici
##phase
##phalia
2004b
saysjoun
trader
tradition
traditions
tradeka
receives
receipt
receiving
receptacles
localisation
americas
roi
roce
roaster
royce
rohwed
##dauf
entering
enterprises
meets
pharma
pharming
pharmacy
transferable
rautakes
launches
baltica
334
333
335
332
337
331
beltton
beleag
belonging
litter
sintered
sinocast
tier
tied
tielin
tiusanen
insights
insolvency
propertos
forestries
statistical
savo
savvy
northeast
276
27mn
2760
ebusiness
julia
liising
lieks
liora
liberty
teho
teenag
teurast
teppo
teachers
taxpay
##anesberg
propeller
propuls
programming
entice
entry
entail
postel
postime
postponement
phonebook
316
318
319
311
knot
knight
knives
knicker
matka
mattila
matador
matkato
matinkyla
matches
setv
##iciaries
excise
excerpt
cooperating
logs
logo
logset
logged
logistic
logistical
resting
restoration
restarts
restraining
##jah
upm1v
imap
imaging
imsm
imatra
imalat
imitates
kymi
kylas
kyrolainen
##erton
##ertations
therein
eur30
eur33
eur38
eur32
eur300
eur320
eur3bn
eur36m
eur360
eur342
eur386
eur394
eur313
##emsaen
whereas
maintained
maintaining
divisional
optionally
ahms
ahvenainen
qualities
qualified
slot
slice
slump
slitting
slavery
##neys
##neflo
refuted
refresh
refunds
suomo
suomalainen
suomussalmi
chargz
emi
embro
embarked
sixth
yitgroup
performed
performing
submit
subdiv
submissions
suburbs
368
36m
369
361
affordable
paran
parity
parvi
parchment
paradox
parquet
parameters
parallel
puljonki
packing
takoma
pressed
pressure
pressuring
presspl
pressurized
positioned
insurers
283
288
282
281
284mn
804
808
805
801
80mn
8029
bloc
blond
blind
blending
blaming
mids
midwest
##naam
respiratory
resposnible
respublik
weekday
weekend
effectiveness
efficiencies
demanded
representation
crew
cream
crecent
crews
creativity
differs
espana
espoon
tem1v
eur46
eur47
eur41m
eur472
eur484m
eur415
firmed
particles
scanned
automate
automates
automatic
analyzed
peterson
458
455
452
45mn
facts
memory
tikkakoski
##meter
##meted
##metro
execute
executing
execution
##mpofri
creditor
fridays
fierce
fimentor
kemian
kemij
kemijoki
quipped
quitting
quatro
quito
quantity
turbo
turtas
watertight
##dsk
##paisj
##itsa
staffers
chairmans
centrally
centralising
384
388
608
609
60mn
foundations
foundry
idris
idzel
leminen
passed
passages
password
veil
veikko
veeger
vegas
versatile
##ioranta
eur58
eur59
eur59m
eur550m
eur53m
eur58m
eur582
eur598
eur510m
streak
organise
organised
organically
organize
organisational
detailing
cooperationand
70s
706
705
bnpp
simon
simdax
simulating
##nedy
##kei
##keit
begins
beginner
pretty
segu
commiting
pulpwood
pohjois
pohjoa
pohjantaht
ev3
evil
evli
evapor
evolving
evidence
evacuate
futures
wwd
warnings
warned
warner
##shu
##shis
##show
##shot
##shmi
##shamn
##sheet
##haw
##haul
##arajah
storey
storeys
summed
plays
playbook
changshu
response
accessible
##manni
poy1v
implements
registers
broader
broadcast
broadcasters
broadsheet
ahl1v
affecting
respecta
003
008
007
0030
governed
okhta
panies
panama
panfish
panamax
siilinjarvi
sipponen
treating
trebles
tremend
tonnage
anti
antniemi
antonio
condition
conditioning
condominium
nearby
margins
platts
records
presented
difference
responsive
responsibly
323
328
325
322
baseball
bioview
bioethan
biotherapeut
backdro
backbone
backhaul
colors
colourful
older
olives
olkil
olavi
##kyl
standalone
##ectionery
scheduling
southfield
southaven
governemtn
438
435
43pc
cliffton
kesbv
keskinen
keskusk
##edness
attend
attackers
installs
installment
installations
glasses
glassfi
glassworld
authorise
authorised
authorisations
infrastructures
caller
calling
homepage
multiling
multinational
multistore
multichannel
multifunction
merges
mergers
surprise
surcharg
surmises
self
eur6m
eur62
eur69
eur67
eur65m
eur61m
eur609m
eur683
connected
shoes
shopped
requisition
contented
advised
advisors
advantages
weblog
consultation
consolidate
consolidations
transported
publishes
digitally
digitalize
digitalmed
560
563
565
569
565m
george
geenrated
geberit
gasco
gasconvers
haug
haiti
hauling
hauhio
hautaniemi
haapakoski
haavisto
haakon
haikarainen
testament
tekes
teknos
tekmanni
woodlock
woodworking
##tieth
##inkatu
themes
comprised
compression
compressors
fortuna
fortune
fortitude
shipowner
sek6
sek50m
sek70
sek72
sek25m
sek90m
sek77
differentiate
economies
economics
economically
398
395
391
3932
3931
486
480
483
487
496
498
492
497
apac
apwr
apoteket
beneath
housewares
japrotek
tamil
tamminen
tamfelt
tambov
tammela
ventilated
ald1v
maximizes
portfolios
ebita
liquor
liquide
463
467
474
calibr
calendered
calibration
dispose
disagreement
disagree
erh
ervi
ergo
ercs
ergon
errors
ercol
fisher
falls
faller
kontt
nyman
natlabs
tenant
##boy
##boats
##bothnia
##gets
##inalho
supercal
supermerc
bridges
returns
lookout
##minkainen
participation
participates
turkcell
innovar
innovest
innovational
innovator
innovators
beneficial
beneficiaries
906
austin
clothes
filing
filtr
filtration
filipp
filipino
flexo
flexibility
narva
tallon
tallinna
wayne
winds
winded
##eple
##itute
prototyp
protrusion
converted
converters
converged
courier
courthouse
courtship
integrates
associate
associations
teams
teamed
teaming
restructured
treats
tecnomens
tecnopolis
naturally
thursdays
425
421
554
553
5500
578
571
5700
516
518
breed
brewer
breath
moron
moran
morna
morris
morocco
skin
skilled
skanssi
winders
winnings
winners
##efin
##hode
##eldorf
sheffield
booking
bookings
bookrunn
1994
1990s
arrive
arrived
talvik
clearer
restructurings
410
415
537
5320xm
domain
dominated
dominating
fairly
harness
harold
harnos
harbour
harju
harald
harple
ils
ilim
illin
musoma
nnsi
pleasurable
ruin
ruwa
ruuska
ruutana
ramsey
satin
satlan
saturation
satisfactor
satellite
altra
altai
altadis
contained
premedia
premature
divests
divestments
recentlyvia
telecommunication
370
377
371
3000
655
65mn
denies
denver
denied
hyun
hyvin
hypotek
hyundai
housed
justin
justly
justified
moskov
mosenergosby
mosmetro
osmo
oscar
osmium
osaka
osakeyhti
runner
routine
silja
silvenno
visible
visits
visited
vacant
vac1v
vacancy
vacuum
##ievably
adjacent
synony
synosia
impacts
impacting
countryelements
institution
patented
establishing
establishment
streamlined
arranger
arranging
arrangers
circle
circuits
019
01011
0187
346
340
343
342
349
347
445
442
441
44million
740
743
745
747
7400
754
755
75cm
7597
bibs
biograph
bioph
biocare
barum
barents
barcel
barley
barrel
barrels
barbequ
barstow
barleyc
guess
guder
guide
guided
guatem
honkama
honolulu
labs
label
nationally
pots
potash
potato
rightfully
varnishing
varpaisj
##ieri
topic
promo
promised
eur74
eur73
eur700
eur70m
eur76m
eur73m
eur74m
eur732m
forwarded
forwarders
##odynamic
northernmost
commissioner
knowhow
connects
connector
connecting
adjustable
400mn
526
525
bids
bidders
diligence
huh
jyv
jydsk
pensionable
radios
radomes
##taassa
##value
##puter
##innati
stoppage
confectionery
shoppers
shortlisted
reader
readership
weakening
introduces
art1v
artists
arteva
artistic
domestically
046
047
0491
3gsm
673
678
67mn
6753
bali
balloons
baldauf
esa
esko
eseries
ferro
favors
graaf
grabb
grappling
hoist
hoists
hitura
hitachi
karara
karhu
karachi
karcze
karlst
kariniemi
karelia
karputer
limiting
limestone
painting
painted
painful
tapes
tapro
tapings
tapeks
tapani
tapuli
waiving
waiting
##namics
##hanen
finalize
revs
revise
revised
primer
invented
inventories
indiana
classified
classroom
concerns
proposition
initiating
initiate
navigators
navigability
czechrepublic
680
685
626
623
628
629
627
6220
6210
617
61us
6120
6110
6131
880
884
889
854
85mn
854m
854mn
edible
editors
edgar
edges
edmonds
education
mike
mikron
mikshis
singer
singles
singulase
##ckers
##velu
##velut
##boro
##onald
safe
safely
##lectual
sumatra
uniontown
recommencing
elevated
roads
roadway
roadmap
roadshow
functioning
successor
potentially
huhtam
microelect
060
064
067
030
035
031
083
089
087
600mn
600050
8002
800dw
diagrid
diabet
diameter
frei
fremant
freighters
floors
gets
getinge
juergen
lettable
naming
namely
namibia
putin
pipe
pipes
pipette
renal
render
renison
rendered
renzo
renounce
sidewal
tulla
url
urls
urbano
##ritants
exporting
alumina
ensuring
enskil
universal
universiti
separation
exploring
explosively
healthier
recycle
speech
eur156
eur155
eur152
eur159
eur157
personally
personalized
3588
fueled
africaand
recommendable
544
580
582
587
634
631
6300
63mn
998
992
99mn
audit
audience
auditor
auditing
cells
cellphone
famili
families
freezing
hkse
iran
irritants
kroon
krook
kroger
kroksberg
lighting
lightning
lightweight
mynet
males
malinen
malkia
maloney
motors
motlan
motivate
oregon
railroad
seventh
seventy
seventeen
viro
viitan
viitas
vijver
viisas
violated
viiala
vantaan
welfare
##trascan
##karinen
##karhu
markings
markku
seafood
seawind
appointment
appointments
heatmasters
heathrow
metsamas
feeders
feedback
traveler
traveling
modernisation
partnerships
identified
identify
identifying
flexiblebas
laborious
aluminij
residentialconstruction
achieving
achievement
mechanics
mechanise
mechanically
mechanisms
mechanizace
023
029
027
094
097
0941
591
666
664
669
661
760
768
769
767
730
734
733
730mn
775
779
777
710
718
711
7162
862
891
814
813
aktav
docomo
etc
etth
etuov
furnace
gambro
gambling
meri
merely
merko
merisatama
nrvinen
nrnits
raty
ratasma
utm
utah
viewpoint
westend
westward
westphalia
##generating
tomi
tomas
tomsk
tomato
##staniya
composition
complexes
complexity
showroom
showcase
##tsila32
undisturbed
seppanen
websense
defences
electrically
loader
loading
loaders
kazan
kazgip
conducting
happen
happens
happening
tietoenators
brewerton
everyday
everything
everywhere
gypsum
challengers
070
0711
0762
823
827
873
878
879
87741
916
910
915
911
boring
borba
citi
categorization
categorically
crossing
crosscount
flew
friedlander
messages
noma
obstacles
pcs
pcmag
possibility
possession
possibilities
pekoni
pekkarinen
sentiments
skier
skiing
slipping
##umentori
##upply
##nojamas
##which
##stretch
eur93
eur91
eur900
eur97m
eur94m
eur98m
eur995
2003a
readychex
reorganised
reorganization
reorganizing
reorganisations
updating
advertised
intelligent
allowing
allowance
eur131
eur131m
eur139m
kaukopartio
typed
typical
substitutes
bluebir
bluegill
bluewin
committees
standardised
surfers
surfeit
flooring
floorings
floorball
concentrated
concentrator
945
900m
cancer
cancers
cablevision
collated
collins
collisions
eighteen
fttb
fttx
himself
hardest
hongmei
kalkk
kalinisk
kilogram
ovako
plyland
plyfa
qpr1v
snp
snag
svh
svya
tmls
venezuel
walki
walker
walby
walden
walvis
##skogo
##iju
##ijyva
##leri
##glarp
##ometers
commenting
contacts
contacted
contributed
charter
charters
charlot
normative
normandy
species
specifying
speculative
spoke
pointing
eur106
eur108
eur107
eur127
eur121m
usd119
mineracao
subjects
calculate
calciners
forecasting
upgrades
upgrading
hydronic
syndication
independence
845
849
847
8427
960
964
969
9663
953
958
955
bavarian
benches
camara
durability
froh
frolov
fitzger
fronts
farmer
herzeg
heritage
humo
humans
ivd
ivan
ivory
ivarsson
kdg
kebabs
keiju
landed
linked
mhs
mhi
n76
n73
n75
n72
n79
n77
n71
occurring
occurred
occasion
pictures
pieces
piirainen
slogan
slovenia
tero
terrain
terror
verification
verifying
verbund
virve
virgin
virpi
virkk
virtual
virsul
viruses
wipro
##ihat
##bao
##bni
##ponds
infected
infotainment
influence
findest
conceptual
behnaam
##imeister
enhances
enhancing
macro
macintosh
origin
originated
##souri
reserve
reservation
reservations
meaning
mexican
leaseback
repeat
repeating
repeals
grading
trademarks
blocking
colorado
requirement
australian
ferryboats
diagnosed
popularity
independently
gardening
renewed
renewal
renewing
renewables
individually
individualising
052
696
694
830
8342
936
934
939
983
987
927
billingham
cardona
cardiovas
campbell
campomos
e66
e60
e63
e62
fasten
homemarket
hallberg
hanninen
luhr
luuma
lsc
linde
linden
lindsey
masterbul
pilanesberg
packets
river
rivals
romanian
trout
troubles
trojans
troubled
tailgate
tailgates
voiced
voicem
voimatel
wanted
##augos
##voip
##voices
##huolto
##hamn
##hamet
##ittently
##eleon
eur201
excessive
whitefield
resolve
resolutions
recruits
interfax
symbol
intentions
clarification
screw
screening
replay
replaces
repurchases
optimising
optimize
optimisation
optimistic
optimistically
redundancy
redundancies
granting
purses
pursues
pursuit
pursuing
pursuant
greenhouse
greatest
depositor
reflectors
eventim
multiples
multiplying
multiplay
supervise
supervisor
functionalities
bottle
bottled
normalized
normalises
786
784
781
burt
burton
cymed
cybe
dyes
dyed
dynamics
drawn
draught
dragon
drawing
drainage
dokumentori
e70
heard
hearst
hamburg
hammas
hosted
hostile
kitron
kitai
kitchen
kallioranta
kinds
learn
leary
learns
milan
mildly
military
molub
molten
madoff
nasty
pushing
pushers
rolls
sunk
sunnunta
sundays
sizable
tuija
tuuri
tuleva
widen
width
##afee
##awkdr
##3090
##kiner
##zaj
##zhang
##zhyeg
##zhali
touches
##iliensis
prospectus
professionals
principles
checked
checkpoint
euro13
euro18
euro120
euro172
##amokiint
expressed
expression
agricole
intellectual
manageable
preferably
climber
climbers
claiming
scissor
1983
1985
eur111
eur115m
eur116m
eur1149
counterpart
countervalue
lawmak
archer
archived
archestra
archicad
archipelago
cruising
critch
criteria
doubles
doubling
kaunisva
discussed
discussion
extracted
determine
emsa
emergency
ollikainen
geographies
geographically
tendering
escalator
hooked
frequent
frequencies
pipettor
malaysians
objectively
demonstrating
demonstrated
hydrocop
piloting
beside
bagdon
baker
baked
bakman
bakosch
cuaut
cdma
capped
campofri
cerberus
crosst
crocheted
cosco
casting
castle
castell
castings
castecka
derive
derives
derived
deriving
deramus
derogating
easiest
essar
essent
fabrics
fiftieth
hectare
icy
journeys
n96
n93
n92
n931
poundstretch
rs40
rme
rmg
semiprod
searched
searching
tasb
task
tabloid
tacked
utilise
utilising
utilised
utilises
utilisation
utilizing
##urova
##ngailis
##laska
inspected
inspired
inspires
inspiring
answers
compensated
finisher
straight
strapping
strawberry
reasonable
reasonably
alternately
alternatives
suffered
maple
magnus
magney
coupled
residence
seeks
triple
appearing
deutschland
heikkil
precinct
precipitation
terminations
terminator
army
armada
removed
removable
entitle
entitles
refiner
refineries
refinancing
emailed
attachments
dismissal
skogberg
mikaapp
renovated
occupy
occupies
occupancy
occupiers
principally
agriculture
footwear
pkc1v
elektros
avena
birming
bangkok
cathode
cartons
cartaria
cultivation
dcuc
dino
dinmuk
dinosaurs
donation
donate
dubbed
egypt
eggs
egeszse
eaten
eataly
gotta
henry
henning
ipo
ipv6
ipods
jarle
jarvinen
jaroszow
kuula
kuhmo
kuuste
kuopio
kuzaj
kiran
kirsi
kirkk
kospa
kuitunen
lgu
lgpl
lotus
mandate
mandates
n80
n85
n82
n81
pirila
pirelli
pellets
pellonpa
pellissier
rentakran
rangers
riskware
sandals
sandberg
sandanger
sandwich
tankers
vuoren
vuolteen
vuokatti
vridi
walls
wallenberg
wallhamn
watching
watchtower
writer
writing
##rupled
##4090
##maskiner
theses
thesecond
##onautic
tougher
##isuus
procedures
procedural
complemented
forssan
##unnas
exceeds
margareta
choosing
chameleon
christine
christian
christopher
trustworth
adopted
adopters
adoption
abbott
solids
weatherdeck
investigation
investigate
investigated
sponsored
provisional
considers
poorest
1946
eur167
assume
assumed
assuming
franklin
flatiron
flagging
smoke
fulfilling
drinking
rooms
roofing
pharmacies
pharmacodynamic
entreprenor
excellently
wonderful
difficulties
vegetables
simple
simply
collects
selects
fujairah
succeeds
premiums
5401
historian
usd12m
usd125
inaugurating
inaugurates
surveyed
uncertainty
arabized
observes
observations
singaporean
awaited
awkward
amplifi
bedroom
benelux
baby
baber
babies
babcock
ballast
bahr
bahrain
cses
curl
curve
curators
curfew
celulose
celbi
cido
cidco
cads
causing
damage
damaging
damages
damaged
ecuador
ecosystem
ethibel
fischer
failure
galeria
galerie
gallup
hienonen
hietanen
hiidenh
koivisto
koulutusk
koistinen
kohtam
kolnp
kolorit
kimmo
kimmel
kapthing
kapuli
kapellskar
kapiteeli
krona
kroner
kostenlos
kostiainen
lidl
liddell
loses
lundberg
lundbeck
linkspans
msn
mustonen
nike
niklas
nikkiso
nikkei
otis
odd
odyssey
oversee
overseas
overshad
oversupply
psv
palin
palace
paldis
palvelut
pioneering
pitching
pentik
pentti
penttil
penttila
papa
papel
rfid
rhine
rhubarb
rosa
rosberg
roshan
rosendal
rimi
rimvesta
rantakari
roundwood
saratov
suspend
suspected
sounds
taneli
tanqia
vanhanen
vasanth
waters
wat1s
##flussen
##amentos
##niki
##niikka
##nieciba
##brook
##lemedia
##guire
##274
##omerate
comfortable
prosition
prosperous
compatriot
styled
stylised
stabilise
stabilisation
constitutes
constitute
sabbat
sabhar
saarinen
saarioinen
shifted
sharpest
reino
reinforce
rebuilt
rebuilds
plaque
unveiled
unveils
resigned
exploited
exploitation
movies
movable
movements
moventas
aggregator
##ogenous
capturing
captures
spinning
spreader
outdoors
legacy
legisl
telematics
phosphorous
phosphodies
validation
validating
feasible
clicked
clicking
scott
scotland
1966
1964
1968
eur179
eur177
1112
repayments
timetables
trailers
distinctly
kauhava
discounted
taloustutkim
21179
voluntary
browsing
ministerija
sintering
restaurants
slowing
refurbishing
envisages
eur436
eur438m
authentic
sihvonen
biofuel
backups
southeast
multimediacard
eur655
eur655m
requesting
hampden
displays
breaking
breakup
breakfast
530773
harvesters
satisfies
osuuska
honkajoki
graphics
pipelines
myllyla
myllypuro
markedly
advertiser
advertisers
collaborative
collaborate
snowfall
svensson
pietiek
pietinalho
switchboard
instrumentation
depositary
depository
tuomo
tuomainen
therapeutics
magnetic
catalytic
fulfilled
fulfillment
oxyview
792
a330
banned
bitmapped
bosnia
bodily
blood
barges
bargain
bargaining
cease
ceilings
cvd
cvc
cra1v
crafts
crackers
cumulative
cumerio
cumberland
cxe880
dvb
destinations
diminished
dartford
dogs
diego
dissertations
eklund
ekono
ekaterinburg
eliiv
ghg
garry
garage
garner
gunneflo
geo1v
halved
halonen
hallein
jeans
jeamb
jeopard
jaakko
jaemsaen
jorgen
kiilto
kiosk
kiikoinen
krister
kraski
krishna
kasak
kasola
kaspers
kids
krakero
kansa
leskinen
lender
lumberman
lovely
lightsquar
liabilities
lynn
mcafee
mc3090
mcguire
mmh
mmx
misurec
mislead
missouri
melting
melody
melngailis
mountain
nsr
nsn
nskyl
niina
nkan
nitrogen
pon1v
ponten
ponzi
pedometers
pivotable
praised
praises
prague
pavements
pavara
paviljonki
pankaj
practices
practically
practitioners
peltola
rtg
rtch
rtkm
ryymin
rpm
rotation
rotana
rotterdam
raboch
rabobank
rabbits
ranked
ranking
rugs
rug1v
rugby
rubin
rostov
sodium
sveikatos
tapped
tummy
tightened
tightening
tie1v
tornstrom
ulm
ulitsa
ultrascan
vtb24
veliky
wrt1v
wishes
##hoznits
##gesunds
thinly
inspects
inspections
inspectorate
tolerability
##itiimi
protein
prolonged
stricter
strictest
strictly
israeli
convenience
conveniences
convenient
conferencing
conversion
conversations
conversions
williamson
sheds
shedding
shelved
ashutosh
reiterates
examines
permitted
neighbour
hassinen
hassles
hassela
alpine
incorporating
incorporate
incorporates
contrary
child
ordinate
seasonal
absorption
absentee
absolut
boxboard
boomerang
apparent
apparently
apparatus
appealing
weighted
debut
deepwater
technoports
megapix
megabyt
megamart
interconnected
helsingborg
leaning
leaked
leakage
stranded
struggled
brasiliensis
philips
philadelph
photo
photos
photonium
meteorological
paulig
prepares
closer
eur143
eur196
eur193
downloading
downloadable
overlapping
undertaken
workflows
continuously
131000
timberjack
assistance
assistants
1858
172p
avestapolarit
lifetime
minnetonka
eur235
eur286m
eur259m
schulte
schultz
schultze
schools
patrick
robot
lietuvos
settled
restricted
emtn
responded
eur42m
eur422
ideally
432mn
surpassing
shipbuilding
sek150
administrative
protects
biologicals
articles
urbanizing
speaks
speaker
speaking
wholesalers
borrower
borrowing
borrowers
oblast
oblivion
obligated
inflatable
seminars
language
mortgages
pharmacokinetics
simplifies
warranty
journalism
disappointing
kauhajoen
aleksanter
hospitality
vladivost
vimpeli
##uokraus
threatening
coagulants
accommodation
polytechnic
a688
a6201
ayry
ayanamb
axa
axis
aaland
aalborg
ailus
ailments
ahold
ahola
aalto
aaltonen
b2c
b2b
batam
battery
bilfinger
bilbao
bicycle
bicentenary
badly
braking
bracing
bergvik
bergqvist
biscuit
biscuits
cf2
cfsb
cowie
cowboy
cocktail
cockroft
calais
calafate
duet
dictated
dietz
dialing
diploma
dramatically
dramatic
e36
e300
eager
eagle
eriikka
eriksson
fennia
fenestra
fantuz
fantastic
founder
founders
folded
gdf
gdp
goran
gorelovo
gearing
gateway
gatehouse
gathered
hartford
hartwall
hanko
hankkija
hintikka
hintze
hacking
halted
hameenlinna
igor
iggesunds
ignored
ignatius
jimmy
jacket
jacobs
khopoli
khanty
kelly
kellokoski
kotka
kotikokki
koponen
kopijyva
kicking
lan2lan
lanxess
laguard
lagarder
lansio
lansivay
lakeville
lakshmi
locks
lennon
lennart
mascara
maskins
malting
maltider
nmeri
nhivak
nhika
nutritional
nutzfah
nadu
nadarajah
nursing
nurseries
pdas
pde10
pnabs
pntz
podcast
podlaska
portsmout
pennies
pennsy
quarto
quartal
rods
rumors
rumilly
rockwell
rationalization
rationalize
rushydro
ssl
serial
serbia
sirkka
sokonet
sokopro
skyline
society
societe
sophos
sophisticated
ttm1v
title
titles
ticket
ticaret
tells
tellabs
tahko
tahdet
uutiset
uutislehti
vpn
vitim
vitamin
vibe
vibrocomp
vostok
vostoch
wtc
wt4090
wiio
wolf
wolverine
wig20
wrapping
wrapped
ylinen
ylivies
zainalab
zaharova
zahariev
##tbody
##senkrupp
##riga
##oulos
##mansk
##harju
##hdenkatu
##kilahti
##gbolt
##jekti
thanksto
instruction
instructional
##rotsvet
##alonkero
anchors
anchored
tourists
tournament
tournaments
##asmaa
proofpoint
forums
findings
stanley
stadigh
stadtver
stavo
stavokons
beatriz
sahlberg
sahavaara
shadow
rebates
rebounding
rewarded
rehabilitation
rehabilitative
exempted
exempting
withdrawn
withdrawing
alloys
suez
martina
martinez
maggie
magistral
accepted
acceptance
##abinsk
newcomer
newcomers
charting
mantyharju
orascom
euro300
admits
admired
indicator
indicators
moorits
moorestown
boaters
weighs
weighing
bucking
buckeye
accelerate
accelerated
accumulated
accumulate
recipients
recipient
spruce
spraying
meantime
intermodal
intermittently
interaction
interactions
intensity
intensifying
supplements
supplemented
##ovoima
brisker
emptive
emphasised
emphasises
preceding
precedex
delisted
swiftly
centricity
equivalent
equivalents
scrap
scrapped
1923
tweets
tweeple
directionality
regarded
146mn
141mn
retrieves
retrieving
usd332m
usd213m
johanna
lampokasitt
traceability
carlshamn
assurance
assurances
assessing
assessment
argentine
argentina
crushed
crushing
franchise
franchising
facilitate
facilitates
188mn
steadily
floral
florida
fluctuation
fluctuated
smoothly
fulfilment
discipline
disciplined
210320
casualty
departures
minimum
minimize
detector
pathological
royalty
royalties
restarting
emirate
emirates
suburban
experiencing
experimenting
quadrupled
quadriga
turbine
turbines
keylogging
keyloggers
keywords
simonson
simonsen
evidentiary
0025
attributes
attributed
privatization
privatisation
eur647m
eur634
geometric
geometrically
innovationsmanagement
breadth
skandinavian
skandinaviska
vaccines
vaccination
microwaveable
confirming
confirmations
configured
configuration
artemis
artemyev
karhinen
karhula
vehvilainen
585us
irrevocable
irrevocably
feedstocks
kaupunki
kaupunkin
763mn
7365
890us
definitive
definitely
825mn
snapper
snapshot
motorcyclist
motorcyclists
behavior
behavioural
e658
e61i
lulea
eur860m
substantiallyimpro
molecules
molecule
megawatt
megawatts
criticising
criticised
hydrocarbon
hydrocarbons
rs35
rs310
##energosbyt
lihakunta
lihakombina
entitlements
merchandise
merchandising
pelletizing
chambersburg
sponsorship
entreprenadmaskiner
disappeared
kolkata
kolkhoznits
ostroleka
ostrobothnia
watermark
watermarks
reinforced
reinforcement
highlighted
dissolve
dissolved
kidnapping
kidnapped
nitrates
nitrite
pedestrianised
neighboring
neighborhood
##otyping
undertaking
undertakings
illustration
illustrators
bathrooms
celebrated
celebrates
gbx10
gbx12
hannaford
icelandair
tinyurl
tinyurls
umts900
umbrella
umbrellas
ingredient
ingredients
predictability
abramovich
accomplishing
partihallsf
partihallsforbindelsen
workshops
950mn
aazhang
aeronautic
aaron
arokarhu
asthma
aulasmaa
aqua
aberration
aderstr
aptly
auburn
aussage
apsaugos
akseli
a323
a801
akersberga
bm4
berlin
bonus
bctmp
bolster
bounced
boute
bogus
bluetooth
bockum
burrill
bollore
breeze
burgundy
bordeaux
bawag
cbd
cayman
cpps
codeterm
cagr
club
cereals
cukurova
cursors
cyclone
crazy
cincinnati
celtnieciba
catalogues
cushion
cathay
dhabi
database
dalborg
dillon
dolce
dirk
dulai
doprava
dso1v
dallas
deregulatory
dovre
density
dusseldorf
disease
dukat
daxtum
dumping
dampened
drafted
dahlstr
dmasia
dkk250
dormus
duckburg
e45
ehitus
einvoices
erection
etera
eigener
eads
etsi
eberl
eloholma
eiof
eletric
emmy
ephc
eijkens
eidesvik
fcu
fgvoip
fzc
foncier
femto
fusing
flykt
fragment
fears
fum1v
ferguson
fennovoima
fashion
gilchrist
gemalto
girders
gustav
gabbana
gartner
gavril
gogol
gansu
grieg
gibtelecom
gordon
gawker
grievance
html
hfc
horizon
hedging
hurdles
hutchison
hayward
hevea
hervy
hapoel
hantila
hualu
hikes
hsea
harkonen
herttaassa
hanoi
hornborg
hormone
hangasjarvi
heterogenous
ionphase
iisalmi
iivrcl
ilyin
iraq
iptv
igen3
jsco
jiang
jerusalem
jalo
jutland
jortikka
jackson
juuka
jawad
jamnagar
klabin
kpy
kindergart
korhonen
kennedy
katzman
kurkilahti
kentucky
kivimeister
kershaw
koduext
karttakes
kasei
kardzhali
kultalonkero
korteniemi
katajav
karkkila
kveyt
kalajoki
korpinen
kommerts
kouvola
kenneth
kangasala
lye
liner
lorry
liljeholm
lisle
lutterworth
lapin
lacquered
lighter
lankapaja
lubricants
lukkoex
lonnfors
larsen
lordi
luceplan
lanebrook
mpra
murmansk
mentions
migration
mistake
mukkav
myspace
mississippi
mssb
mursula
meltdown
mcalpine
mcdonald
ntc
nau
njastein
nanjing
nivala
nodes
napoli
noponen
nliitto
nuggets
nsein
ntehuolto
nausea
niiinin
nancheng
naimi
nagoya
oeur
ogden
ozk
ojala
oesk
oleg
olympic
oximeter
oksanen
oefirstalert
oborniki
pfizer
ppmi
pecs
pestka
pagamentos
pistachio
pacts
poseidon
pourings
pensioenfonds
piano
pyszny
polled
palfinger
pnaas
pocketable
qatar
queue
rvr
ringman
ridge
ruselprom
ruled
rainbow
rifd
roving
rukax
racked
robert
rannikkose
riihim
rmb8
sfd
sbgrp
sonoco
sedation
sessions
sardus
sechs
sankey
sourced
songs
sintra
sft1v
sarkamies
sinappi
skaarer
sneed
something
somoncom
sulfide
sullivan
tdd
tlv1v
tesoro
tetroxide
tidningar
tusa
tastes
tendency
tps1v
tissue
tariff
tameer
tumblewe
tafks
tesisleri
teterboro
tutkimuksen
ufj
ugglarp
uzbek
uusimaki
ulefos
udlejning
ustjug
vnh
vesa
vorota
veda
vilo
vishakapatnam
vosstaniya
vocal
vintage
vekka
vizag
vataja
viscaria
varkaus
vinachem
vertical
vastse
vashi
vocollect
worse
wintek
wiklof
wackiness
wisconsin
waxes
welsh
wenchong
weckstr
wynne
xfn
xpower
xerox
xns1v
yuval
yvonne
yhteishyv
yinhe
yaroslav
ystok
yellow
yokoh
yamskogo
yakima
yankov
yekaterinburg
yhtym
yiliang
z6xx
zloty
zgody
zanadvor
zandvli
zapadny
zepro
zealand
zoltan
¬maco
##uutus
##uoto
##tunately
##tivuokraus
##eistot
##rzeuge
##bockers
##lmeyer
##lvania
##motet
##pahler
##wicz
##woste
##waltung
thorwoste
thames
thailand
thyssenkrupp
thieves
theodosop
thebault
theutilization
thelatest
thewartsila32
##onummi
inverters
inregard
ingerois
inhibitor
inrikes
oflemminkainen
of2008
ofbodywhich
anasmotet
anrak
anjalankoski
toilets
toivola
toppled
toptronics
tommi
toshiba
tokyo
andrey
andrius
andlinger
andalusia
##iculars
##eloadoperation
comtex
prohaska
projektivuokraus
compagnie
compasses
compounds
compulsory
euribor
foremost
forthcoming
itunes
itella
italahdenkatu
fincantieri
stemming
steve
stichting
stavebni
stereotyping
stoves
stahlberg
isoprene
onodi
conveying
conglomerate
convincing
##untayhtyma
beeinflussen
beautifully
saigon
saavalainen
saarijarvi
sacanfil
saimaa
saunalahti
##lejohn
shavlik
sheksna
shielding
shivakumar
shuweihat
shanahan
asokan
asahi
asmobile
asfaltti
reftele
references
reaffirmed
revamped
rectifier
exporter
external
exchanges
perttu
pervorourals
perpendiculars
perkonoja
nekilnojamas
nefarious
alabama
alberta
alike
alteams
alfred
alcohol
albums
almaty
finnegans
bypasses
suistio
suovaniemi
suonenjoen
sukhraj
salokannel
salovaara
saltonstall
salonius
netanttila
netweaver
netbooks
marieholm
marilyn
marshal
marttiini
marietta
enexis
encompassing
enthusiasm
maarten
maaseudun
mammila
maatalous
maihak
maihaniemi
mazzika
plummeted
plunged
coaxial
coherent
coordinate
acnielsen
contextual
prerequisite
pricier
prnewswire
chopra
chichi
chelyabinsk
chikunov
churned
chassis
cheerful
unloader
unlike
unmanned
unfortunately
unconfirmed
uncoated
uncommonly
unbroken
unprofitable
unknown
unbelievably
unrivalled
unlimited
unanimous
manipulator
manhole
manganese
manturovo
manhattan
cornerstones
corrupt
corrected
corrensponds
corroborate
helokunnas
helmets
euro603
euro735
uplift
upfront
2008publication
reshuffled
resettlement
invenergy
seahawkdr
seismic
seitovirta
trilateral
triggered
indebtedness
mohammed
aggressively
aglichkeit
boycotting
bohemia
capitex
decaliters
applauded
bukoba
investlesprom
investinestonia
norvestia
amsterdam
ambulance
ammonia
ambassador
degefors
depressed
degridding
heindlmeyer
hepatitis
recovers
reclaimed
sparsely
meiklejohn
interoperability
interdigital
interbancaria
interavanti
symantec
systeemitiimi
outplacement
anniversary
conspiracy
secretary
intubated
intriguing
intravenously
lehtonen
legrand
lextel
lehtiyhtyma
lebanon
telekom
telcontar
telgua
montaj
monospace
montevideo
mongolia
relinquishing
stretches
brussels
brinkab
bratsk
bratislava
bretagne
phoenix
paijat
delhaize
subsequent
impairment
electrowatt
clausen
ourmachinery
scorecard
sculptural
1950s
1960s
1970s
wellbeing
wellmont
wellingborough
eur120m
downgraded
overcharging
underutilisation
regenerative
paperlinx
medvezhyeg
workforse
desarrollo
twofold
reproduction
autonomous
peugeot
lappeenranta
travellers
realprojekti
arbidans
arxikon
crucially
loudeye
loyalty
betonituote
plccompany
redelivery
redevelopment
doobie
doctoral
kaarstroem
mayawas
vaalipalvelu
flsmidth
flavoured
gloriya
disclaims
talotekniikka
grannan
gratuitous
powerplant
21307
brockpahler
millilitre
conciliator
industrialsql
demographic
fundamentals
schindler
schmardin
scholarship
schuldschein
gohrsm
patrizia
polyolefin
politicians
saysjouni
rohwedder
rautakesko
beleaguered
tielinja
lieksaare
teenagers
teurastamokiint
taxpayers
propulsion
postimees
knickerbockers
matkatoimisto
slumped
refreshment
embroiled
submitted
subdivision
paradoxical
pressplate
respublikos
eur472m
quatrocon
chairmanship
idrisov
idzelis
pohjantahti
evaporation
tremendous
condominiums
bioethanol
biotherapeutics
backdrop
olkiluoto
keskuskatu
glassfiber
glassworldex
multilingual
multistorey
multifunctional
surcharges
weblogs
digitalmediaasia
565mw
gasconversions
calibrate
ergonomic
ercols
kontturi
supercalendered
supermercado
filtrates
filippova
prototypes
breathe
bookrunners
harnosand
illinois
ruwais
satisfactorily
altaienergosbyt
hyvinkaa
moskovia
mosenergosbytbody
silvennoinen
synonymous
0101138
0187274
biographies
biopharmaceutical
barcelona
barbeque
barleycorn
guatemala
honkamaa
radiosonde
graafiset
grabbing
karczewicz
karlstad
microelectronic
800dwt
diabetes
fremantlemedia
sidewalks
enskilda
familiar
krogerus
motlanthe
viitaniemi
viitasaari
seafoods
metsamasina
flexiblebaseloadoperation
etuovi
ratasmaki
tomatoes
kazgiprotsvet
877417
crosscountry
bluebird
bluegills
kalkkuna
kalinisky
kilograms
svyazinvest
charlotte
fitzgerald
herzegovina
terrorized
virkkala
virsuliskes
cardiovascular
homemarkets
luumaki
masterbulk
voicemail
multiplayer
dragonfly
hammaslaakarit
sunnuntai
tulevaisuus
lawmakers
kaunisvaara
hydrocopper
bagdonas
cuautitlan
campofrio
crosstown
poundstretcher
semiproducts
precincts
mikaapplication
birmingham
dinmukhamet
egeszsegbolt
jaroszowka
kirkkonummi
pellonpaja
vuorenmaa
vuolteenaho
trustworthy
amplifiers
hiidenheimo
koulutuskuntayhtyma
overshadowed
paldiski
saratovenergo
vasantha
sabbatical
sabharwal
legislative
phosphodiesterase
taloustutkimus
osuuskauppa
jeambar
jeopardising
jaemsaenkoski
kaspersky
krakeroy
lightsquared
misleading
rabochy
neighbouring
megapixel
megabytes
philadelphia
aleksanterinkatu
vladivostok
a6888
ayanambakkam
fantuzzi
laguardia
lagardere
lansivayla
maskinservice
nhivakuutus
nhikauppa
nutzfahrzeuge
portsmouth
pennsylvania
vibrocompactors
vostochny
ylivieska
zainalabedin
stadtverwaltung
stavokonsult
lampokasittely
21032011
substantiallyimproved
lihakombinaat
kolkhoznitsa
codetermination
fragmented
gavrilov
kindergarten
koduextra
karttakeskus
katajavuori
liljeholmen
lukkoexpert
mukkavilli
niiininoski
rannikkoseutu
tumbleweed
yaroslavl
yokohama
zanadvorov
zandvliet
zapadnye
theodosopoulos
thewartsila32generating
pervorouralsky
seahawkdrilling
medvezhyegorsk
teurastamokiinteistot
kazgiprotsvetmet
